{
  "version": "1.0",
  "truncation": null,
  "padding": null,
  "added_tokens": [
    {
      "id": 0,
      "content": "[PAD]",
      "single_word": false,
      "lstrip": false,
      "rstrip": false,
      "normalized": false,
      "special": true
    },
    {
      "id": 1,
      "content": "[UNK]",
      "single_word": false,
      "lstrip": false,
      "rstrip": false,
      "normalized": false,
      "special": true
    },
    {
      "id": 2,
      "content": "[BOS]",
      "single_word": false,
      "lstrip": false,
      "rstrip": false,
      "normalized": false,
      "special": true
    },
    {
      "id": 3,
      "content": "[EOS]",
      "single_word": false,
      "lstrip": false,
      "rstrip": false,
      "normalized": false,
      "special": true
    }
  ],
  "normalizer": null,
  "pre_tokenizer": {
    "type": "Whitespace"
  },
  "post_processor": {
    "type": "TemplateProcessing",
    "single": [
      {
        "Sequence": {
          "id": "A",
          "type_id": 0
        }
      }
    ],
    "pair": [
      {
        "Sequence": {
          "id": "A",
          "type_id": 0
        }
      },
      {
        "Sequence": {
          "id": "B",
          "type_id": 1
        }
      }
    ],
    "special_tokens": {}
  },
  "decoder": null,
  "model": {
    "type": "BPE",
    "dropout": null,
    "unk_token": "[UNK]",
    "continuing_subword_prefix": null,
    "end_of_word_suffix": null,
    "fuse_unk": false,
    "byte_fallback": false,
    "ignore_merges": false,
    "vocab": {
      "[PAD]": 0,
      "[UNK]": 1,
      "[BOS]": 2,
      "[EOS]": 3,
      "!": 4,
      "\"": 5,
      "#": 6,
      "$": 7,
      "%": 8,
      "&": 9,
      "'": 10,
      "(": 11,
      ")": 12,
      "*": 13,
      "+": 14,
      ",": 15,
      "-": 16,
      ".": 17,
      "/": 18,
      "0": 19,
      "1": 20,
      "2": 21,
      "3": 22,
      "4": 23,
      "5": 24,
      "6": 25,
      "7": 26,
      "8": 27,
      "9": 28,
      ":": 29,
      ";": 30,
      "<": 31,
      "=": 32,
      ">": 33,
      "?": 34,
      "@": 35,
      "A": 36,
      "B": 37,
      "C": 38,
      "D": 39,
      "E": 40,
      "F": 41,
      "G": 42,
      "H": 43,
      "I": 44,
      "J": 45,
      "K": 46,
      "L": 47,
      "M": 48,
      "N": 49,
      "O": 50,
      "P": 51,
      "Q": 52,
      "R": 53,
      "S": 54,
      "T": 55,
      "U": 56,
      "V": 57,
      "W": 58,
      "X": 59,
      "Y": 60,
      "Z": 61,
      "[": 62,
      "\\": 63,
      "]": 64,
      "_": 65,
      "a": 66,
      "b": 67,
      "c": 68,
      "d": 69,
      "e": 70,
      "f": 71,
      "g": 72,
      "h": 73,
      "i": 74,
      "j": 75,
      "k": 76,
      "l": 77,
      "m": 78,
      "n": 79,
      "o": 80,
      "p": 81,
      "q": 82,
      "r": 83,
      "s": 84,
      "t": 85,
      "u": 86,
      "v": 87,
      "w": 88,
      "x": 89,
      "y": 90,
      "z": 91,
      "{": 92,
      "|": 93,
      "}": 94,
      "~": 95,
      "´": 96,
      "Á": 97,
      "á": 98,
      "â": 99,
      "ã": 100,
      "ä": 101,
      "è": 102,
      "ü": 103,
      "ँ": 104,
      "ं": 105,
      "ः": 106,
      "अ": 107,
      "आ": 108,
      "इ": 109,
      "ई": 110,
      "उ": 111,
      "ऊ": 112,
      "ऋ": 113,
      "ए": 114,
      "ऐ": 115,
      "ऑ": 116,
      "ओ": 117,
      "औ": 118,
      "क": 119,
      "ख": 120,
      "ग": 121,
      "घ": 122,
      "ङ": 123,
      "च": 124,
      "छ": 125,
      "ज": 126,
      "झ": 127,
      "ञ": 128,
      "ट": 129,
      "ठ": 130,
      "ड": 131,
      "ढ": 132,
      "ण": 133,
      "त": 134,
      "थ": 135,
      "द": 136,
      "ध": 137,
      "न": 138,
      "प": 139,
      "फ": 140,
      "ब": 141,
      "भ": 142,
      "म": 143,
      "य": 144,
      "र": 145,
      "ल": 146,
      "ळ": 147,
      "व": 148,
      "श": 149,
      "ष": 150,
      "स": 151,
      "ह": 152,
      "़": 153,
      "ऽ": 154,
      "ा": 155,
      "ि": 156,
      "ी": 157,
      "ु": 158,
      "ू": 159,
      "ृ": 160,
      "ॄ": 161,
      "ॅ": 162,
      "ॆ": 163,
      "े": 164,
      "ै": 165,
      "ॉ": 166,
      "ो": 167,
      "ौ": 168,
      "्": 169,
      "ड़": 170,
      "ढ़": 171,
      "।": 172,
      "॥": 173,
      "०": 174,
      "१": 175,
      "२": 176,
      "३": 177,
      "४": 178,
      "७": 179,
      "८": 180,
      "ಜ": 181,
      "ಪ": 182,
      "ರ": 183,
      "ವ": 184,
      "ಸ": 185,
      "ಾ": 186,
      "ೇ": 187,
      "್": 188,
      "‌": 189,
      "–": 190,
      "—": 191,
      "‘": 192,
      "’": 193,
      "“": 194,
      "”": 195,
      "•": 196,
      "…": 197,
      "₂": 198,
      "₄": 199,
      "": 200,
      "？": 201,
      "th": 202,
      "्य": 203,
      "the": 204,
      "in": 205,
      "्त": 206,
      "an": 207,
      "्र": 208,
      "re": 209,
      "on": 210,
      "er": 211,
      "र्": 212,
      "is": 213,
      "to": 214,
      "ान": 215,
      "स्": 216,
      "at": 217,
      "le": 218,
      "en": 219,
      "ou": 220,
      "ति": 221,
      "and": 222,
      "al": 223,
      "or": 224,
      "न्त": 225,
      "त्": 226,
      "es": 227,
      "म्": 228,
      "se": 229,
      "ar": 230,
      "प्र": 231,
      "स्य": 232,
      "ing": 233,
      "of": 234,
      "क्": 235,
      "as": 236,
      "वा": 237,
      "he": 238,
      "ित": 239,
      "it": 240,
      "न्": 241,
      "ed": 242,
      "ow": 243,
      "ic": 244,
      "वि": 245,
      "ां": 246,
      "om": 247,
      "ते": 248,
      "st": 249,
      "इत": 250,
      "ाम": 251,
      "il": 252,
      "ion": 253,
      "का": 254,
      "ac": 255,
      "ve": 256,
      "मा": 257,
      "स्त": 258,
      "ष्": 259,
      "am": 260,
      "be": 261,
      "पर": 262,
      "भव": 263,
      "द्": 264,
      "ना": 265,
      "कर": 266,
      ".\"": 267,
      "ent": 268,
      "श्": 269,
      "ay": 270,
      "wh": 271,
      "न्तु": 272,
      "us": 273,
      "de": 274,
      "था": 275,
      "या": 276,
      "ha": 277,
      "ot": 278,
      "ri": 279,
      "त्र": 280,
      "ct": 281,
      "इत्य": 282,
      "un": 283,
      "पि": 284,
      "नि": 285,
      "क्ष": 286,
      "for": 287,
      "im": 288,
      "we": 289,
      "et": 290,
      "that": 291,
      "मि": 292,
      "all": 293,
      "ान्": 294,
      "ol": 295,
      "नु": 296,
      "you": 297,
      "वर": 298,
      "od": 299,
      "ch": 300,
      "are": 301,
      "ut": 302,
      "यं": 303,
      "इति": 304,
      "्या": 305,
      "ता": 306,
      "ल्": 307,
      "ङ्": 308,
      "मे": 309,
      "यो": 310,
      "ag": 311,
      "nd": 312,
      "ुं": 313,
      "ट्": 314,
      "पा": 315,
      "र्व": 316,
      "ith": 317,
      "sh": 318,
      "op": 319,
      "ill": 320,
      "ानि": 321,
      "ad": 322,
      "this": 323,
      "pr": 324,
      "कि": 325,
      "ab": 326,
      "दं": 327,
      "यु": 328,
      "्ये": 329,
      "दा": 330,
      "pe": 331,
      "lo": 332,
      "com": 333,
      "ter": 334,
      "gh": 335,
      "न्ति": 336,
      "क्त": 337,
      "fi": 338,
      "कं": 339,
      "परि": 340,
      "with": 341,
      "कृ": 342,
      "ञ्": 343,
      "के": 344,
      "li": 345,
      "ex": 346,
      "ार": 347,
      "मध": 348,
      "चि": 349,
      "will": 350,
      "The": 351,
      "ver": 352,
      "स्ति": 353,
      "tu": 354,
      "ce": 355,
      "ष्ट": 356,
      "श्य": 357,
      "त्वा": 358,
      "Th": 359,
      "not": 360,
      "वे": 361,
      "कु": 362,
      "pl": 363,
      "ने": 364,
      "our": 365,
      "ये": 366,
      "को": 367,
      "इती": 368,
      "लि": 369,
      "el": 370,
      "ul": 371,
      "।\"": 372,
      "च्": 373,
      "ther": 374,
      "ण्": 375,
      "ation": 376,
      "अध": 377,
      "सम": 378,
      "me": 379,
      "ok": 380,
      "And": 381,
      "प्रा": 382,
      "दि": 383,
      "तथा": 384,
      "have": 385,
      "तः": 386,
      "पु": 387,
      "वयं": 388,
      "ज्": 389,
      "ame": 390,
      "id": 391,
      "ain": 392,
      "मध्ये": 393,
      "ir": 394,
      "tr": 395,
      "fr": 396,
      "स्मा": 397,
      "ne": 398,
      "ght": 399,
      "सं": 400,
      "ke": 401,
      "um": 402,
      "तु": 403,
      "नं": 404,
      "cl": 405,
      "ate": 406,
      "sp": 407,
      "ur": 408,
      "con": 409,
      "दृ": 410,
      "सा": 411,
      "ick": 412,
      "क्र": 413,
      "रा": 414,
      "can": 415,
      "वर्त": 416,
      "दे": 417,
      "र्थ": 418,
      "हं": 419,
      "if": 420,
      "स्थ": 421,
      "ord": 422,
      "les": 423,
      "च्छ": 424,
      "out": 425,
      "mo": 426,
      "res": 427,
      "tori": 428,
      "इत्यस्य": 429,
      "अपि": 430,
      "so": 431,
      "him": 432,
      "ष्य": 433,
      "से": 434,
      "qu": 435,
      "age": 436,
      "torial": 437,
      "one": 438,
      "ड्": 439,
      "श्च": 440,
      "ले": 441,
      "by": 442,
      "उप": 443,
      "्यं": 444,
      "रे": 445,
      "स्व": 446,
      "ich": 447,
      "ment": 448,
      "पे": 449,
      "भि": 450,
      "रि": 451,
      "up": 452,
      "प्": 453,
      "ers": 454,
      "br": 455,
      "..": 456,
      "लो": 457,
      "इतीदं": 458,
      "from": 459,
      "नो": 460,
      "ess": 461,
      "est": 462,
      "जा": 463,
      "unto": 464,
      "In": 465,
      "तत्": 466,
      "fo": 467,
      "ग्र": 468,
      "भवति": 469,
      "्व": 470,
      "ly": 471,
      "ज्ञ": 472,
      "sa": 473,
      "स्मि": 474,
      "fe": 475,
      "सर्व": 476,
      "ace": 477,
      "which": 478,
      "नुद": 479,
      "nt": 480,
      "ीय": 481,
      "ला": 482,
      "हि": 483,
      "them": 484,
      "ञ्च": 485,
      "त्त": 486,
      "og": 487,
      "करो": 488,
      "रं": 489,
      "ye": 490,
      "भा": 491,
      "सि": 492,
      "न्य": 493,
      "now": 494,
      "याम": 495,
      "te": 496,
      "त्य": 497,
      "मान": 498,
      "णा": 499,
      "man": 500,
      "शि": 501,
      "see": 502,
      "do": 503,
      "कथ": 504,
      "तस्य": 505,
      "ma": 506,
      "कर्त": 507,
      "द्य": 508,
      "द्र": 509,
      "कार": 510,
      "av": 511,
      "We": 512,
      "use": 513,
      "tutorial": 514,
      "ang": 515,
      "भ्य": 516,
      "ap": 517,
      "प्रति": 518,
      "पू": 519,
      "ind": 520,
      "but": 521,
      "here": 522,
      "ुना": 523,
      "ङ्क": 524,
      "पश्य": 525,
      "ple": 526,
      "ass": 527,
      "bo": 528,
      "ld": 529,
      "ty": 530,
      "मु": 531,
      "यति": 532,
      "go": 533,
      "dis": 534,
      "स्म": 535,
      "द्ध": 536,
      "बा": 537,
      "यि": 538,
      "ant": 539,
      "न्तः": 540,
      "lect": 541,
      "they": 542,
      "अस्ति": 543,
      "तो": 544,
      "षु": 545,
      "हे": 546,
      "own": 547,
      "तव": 548,
      "art": 549,
      "तं": 550,
      "ानां": 551,
      "Now": 552,
      "ine": 553,
      "ack": 554,
      "णं": 555,
      "who": 556,
      "की": 557,
      "शक्": 558,
      "चित": 559,
      "tor": 560,
      "your": 561,
      "led": 562,
      "di": 563,
      "ब्": 564,
      "अत्र": 565,
      "वं": 566,
      "was": 567,
      "su": 568,
      "प्त": 569,
      "स्था": 570,
      "his": 571,
      "नुदन्तु": 572,
      "ra": 573,
      "thing": 574,
      "स्मिन्": 575,
      "मः": 576,
      "सु": 577,
      "has": 578,
      "tion": 579,
      "there": 580,
      "ext": 581,
      "अस्मा": 582,
      "जन": 583,
      "दर्": 584,
      "able": 585,
      "click": 586,
      "ase": 587,
      "This": 588,
      "देश": 589,
      "युष्": 590,
      "अहं": 591,
      "ण्ड": 592,
      "other": 593,
      "वर्": 594,
      "ितुं": 595,
      "हा": 596,
      "श्वर": 597,
      "ile": 598,
      "red": 599,
      "है": 600,
      "Let": 601,
      "Wh": 602,
      "ta": 603,
      "रू": 604,
      "iv": 605,
      "ud": 606,
      "व्य": 607,
      "cre": 608,
      "री": 609,
      "int": 610,
      "अधुना": 611,
      "low": 612,
      "name": 613,
      "shall": 614,
      "ज्ञा": 615,
      "वय": 616,
      "ari": 617,
      "ामः": 618,
      "ist": 619,
      "ect": 620,
      "si": 621,
      "wor": 622,
      "योग": 623,
      "oken": 624,
      "ser": 625,
      "स्ट": 626,
      "कुर्व": 627,
      "ould": 628,
      "गच्छ": 629,
      "एक": 630,
      "णि": 631,
      "ङ्ग": 632,
      "क्रि": 633,
      "also": 634,
      "टङ्क": 635,
      "ard": 636,
      "्यते": 637,
      "ामि": 638,
      "ome": 639,
      "str": 640,
      "For": 641,
      "He": 642,
      "पाठ": 643,
      "शा": 644,
      "ive": 645,
      "ite": 646,
      "श्र": 647,
      "ष्ठ": 648,
      "ction": 649,
      "rou": 650,
      "fore": 651,
      "षां": 652,
      "ans": 653,
      "ose": 654,
      "चे": 655,
      "end": 656,
      "play": 657,
      "ानी": 658,
      "ck": 659,
      "select": 660,
      "वान्": 661,
      "सम्": 662,
      "यू": 663,
      "God": 664,
      "when": 665,
      "come": 666,
      "type": 667,
      "निर्": 668,
      "form": 669,
      "दर्श": 670,
      "इदं": 671,
      "सी": 672,
      "min": 673,
      "वृ": 674,
      "भू": 675,
      "यन्तु": 676,
      "file": 677,
      "वर्तते": 678,
      "You": 679,
      "तद": 680,
      "शु": 681,
      "सू": 682,
      "ती": 683,
      "ach": 684,
      "करोति": 685,
      "tw": 686,
      "ice": 687,
      "किन्तु": 688,
      "तां": 689,
      "let": 690,
      "सह": 691,
      "ject": 692,
      "रो": 693,
      "ात्": 694,
      "ितं": 695,
      "ञ्चि": 696,
      "यत्": 697,
      "Ch": 698,
      "get": 699,
      "इत्ये": 700,
      "per": 701,
      "ous": 702,
      "र्थं": 703,
      "no": 704,
      "विष": 705,
      "ress": 706,
      "En": 707,
      "space": 708,
      "To": 709,
      "टर्": 710,
      "any": 711,
      "pro": 712,
      "ult": 713,
      "Cl": 714,
      "ue": 715,
      "कर्तुं": 716,
      "der": 717,
      "इद": 718,
      "ig": 719,
      "put": 720,
      "say": 721,
      "umb": 722,
      "्रा": 723,
      "तदा": 724,
      "शक्नु": 725,
      "Pr": 726,
      "िक": 727,
      "ान्त": 728,
      "ort": 729,
      "comm": 730,
      "ाना": 731,
      "It": 732,
      "उपरि": 733,
      "लं": 734,
      "ip": 735,
      "सर्": 736,
      "णे": 737,
      "मू": 738,
      "ast": 739,
      "right": 740,
      "वद": 741,
      "पित": 742,
      "said": 743,
      "know": 744,
      "So": 745,
      "ure": 746,
      "पृ": 747,
      "ount": 748,
      "ca": 749,
      "नी": 750,
      "प्राप्त": 751,
      "two": 752,
      "fa": 753,
      "into": 754,
      "fol": 755,
      "po": 756,
      "सन्ति": 757,
      "act": 758,
      "em": 759,
      "नाम": 760,
      "co": 761,
      "भो": 762,
      "lear": 763,
      "रु": 764,
      "क्स्": 765,
      "मपि": 766,
      "ever": 767,
      "ge": 768,
      "अस्य": 769,
      "एव": 770,
      "र्य": 771,
      "परिवर्त": 772,
      ",\"": 773,
      "यी": 774,
      "न्ते": 775,
      "टे": 776,
      "तर्": 777,
      "ren": 778,
      "ong": 779,
      "aw": 780,
      "कर्": 781,
      "कल्": 782,
      "टि": 783,
      "ink": 784,
      "col": 785,
      "gre": 786,
      "षा": 787,
      "should": 788,
      "क्य": 789,
      "यितुं": 790,
      "thou": 791,
      "स्थाप": 792,
      "....": 793,
      "Click": 794,
      "day": 795,
      "ev": 796,
      "नः": 797,
      "यथा": 798,
      "बाल": 799,
      "my": 800,
      "सन्": 801,
      "ity": 802,
      "तेषां": 803,
      "यां": 804,
      "then": 805,
      "rec": 806,
      "नेन": 807,
      "ies": 808,
      "श्वा": 809,
      "Bo": 810,
      "यदि": 811,
      "विद्य": 812,
      "भाग": 813,
      "Enter": 814,
      "ath": 815,
      "ear": 816,
      "लिख": 817,
      "display": 818,
      "ep": 819,
      "word": 820,
      "ज्य": 821,
      "these": 822,
      "ana": 823,
      "ानं": 824,
      "sel": 825,
      "using": 826,
      "new": 827,
      "down": 828,
      "ight": 829,
      "cal": 830,
      "ust": 831,
      "पो": 832,
      "ाः": 833,
      "यत": 834,
      "सञ्चि": 835,
      "्रे": 836,
      "कुर्वन्तु": 837,
      "ave": 838,
      "ness": 839,
      "अनु": 840,
      "चार": 841,
      "add": 842,
      "But": 843,
      "गृ": 844,
      "ob": 845,
      "अन": 846,
      "ग्": 847,
      "फ़": 848,
      "मम": 849,
      "एत": 850,
      "द्वा": 851,
      "भिः": 852,
      "डि": 853,
      "esus": 854,
      "प्रो": 855,
      "युष्मा": 856,
      "धि": 857,
      "their": 858,
      "read": 859,
      "ary": 860,
      "option": 861,
      "ण्ट्": 862,
      "Jesus": 863,
      "ble": 864,
      "अव": 865,
      "रच": 866,
      "ईश्वर": 867,
      "मह": 868,
      "ish": 869,
      "विष्य": 870,
      "तर्हि": 871,
      "उपयु": 872,
      "how": 873,
      "नां": 874,
      "ise": 875,
      "ater": 876,
      "द्व": 877,
      "सन": 878,
      "ens": 879,
      "करण": 880,
      "क्षि": 881,
      "दृश": 882,
      "कल्प": 883,
      "मं": 884,
      "thod": 885,
      "ows": 886,
      "ak": 887,
      "men": 888,
      "vari": 889,
      "Mo": 890,
      "back": 891,
      "ुम्": 892,
      "work": 893,
      "जी": 894,
      "ated": 895,
      "ful": 896,
      "pt": 897,
      "भविष्य": 898,
      "ह्": 899,
      "योज": 900,
      "ाने": 901,
      "spoken": 902,
      "--": 903,
      "दु": 904,
      "सार": 905,
      "had": 906,
      "में": 907,
      "cc": 908,
      "गा": 909,
      "मस्ति": 910,
      "chang": 911,
      "fir": 912,
      "Then": 913,
      "If": 914,
      "about": 915,
      "सर्व्व": 916,
      "ance": 917,
      "दृष्ट": 918,
      "लोक": 919,
      "बह": 920,
      "were": 921,
      "अस्माकं": 922,
      "ava": 923,
      "things": 924,
      "One": 925,
      "Sp": 926,
      "des": 927,
      "numb": 928,
      "पश्च": 929,
      "ash": 930,
      "यित्वा": 931,
      "यूयं": 932,
      "spe": 933,
      "part": 934,
      "ence": 935,
      "command": 936,
      "Lord": 937,
      "णां": 938,
      "किं": 939,
      "पूर्व": 940,
      "10": 941,
      "bre": 942,
      "dr": 943,
      "ew": 944,
      "ll": 945,
      "tim": 946,
      "उद्": 947,
      "अथ": 948,
      "्यु": 949,
      "method": 950,
      "स्मै": 951,
      "gr": 952,
      "may": 953,
      "ont": 954,
      "न्तरं": 955,
      "दृश्य": 956,
      "fter": 957,
      "एकं": 958,
      "और": 959,
      "top": 960,
      "ild": 961,
      "bod": 962,
      "मित": 963,
      "सो": 964,
      "भ्यः": 965,
      "एतत्": 966,
      "फल": 967,
      "org": 968,
      "याः": 969,
      "more": 970,
      "line": 971,
      "ें": 972,
      "eld": 973,
      "iz": 974,
      "page": 975,
      "port": 976,
      "wr": 977,
      "दी": 978,
      "स्या": 979,
      "what": 980,
      "मेव": 981,
      "cont": 982,
      "युक्त": 983,
      "class": 984,
      "चित्र": 985,
      "Re": 986,
      "lay": 987,
      "र्ग": 988,
      "ound": 989,
      "प्रे": 990,
      "again": 991,
      "ram": 992,
      "first": 993,
      "val": 994,
      "ents": 995,
      "dot": 996,
      "some": 997,
      "कम्": 998,
      "ही": 999,
      "ition": 1000,
      "old": 1001,
      "इदानी": 1002,
      "follow": 1003,
      "body": 1004,
      "अह": 1005,
      "क्लि": 1006,
      "like": 1007,
      "ial": 1008,
      "धार": 1009,
      "तेन": 1010,
      "परं": 1011,
      "यामि": 1012,
      "side": 1013,
      "अतः": 1014,
      "घा": 1015,
      "ैव": 1016,
      "धा": 1017,
      "्री": 1018,
      "ils": 1019,
      "?\"": 1020,
      "hand": 1021,
      "पाद": 1022,
      "cause": 1023,
      "मो": 1024,
      "इत्यत्र": 1025,
      "Tu": 1026,
      "cri": 1027,
      "pre": 1028,
      "way": 1029,
      "तुं": 1030,
      "समी": 1031,
      "bl": 1032,
      "ire": 1033,
      "जे": 1034,
      "यते": 1035,
      "व्या": 1036,
      "box": 1037,
      "giv": 1038,
      "त्वं": 1039,
      "acc": 1040,
      "श्व": 1041,
      "che": 1042,
      "हो": 1043,
      "िता": 1044,
      "ign": 1045,
      "विद्यमान": 1046,
      "Ad": 1047,
      "Se": 1048,
      "yst": 1049,
      "कन्": 1050,
      "ree": 1051,
      "tom": 1052,
      "पूर्": 1053,
      "vi": 1054,
      "stud": 1055,
      "कुर्": 1056,
      "द्रा": 1057,
      "rough": 1058,
      "मूल": 1059,
      "learn": 1060,
      "चा": 1061,
      "शरी": 1062,
      "its": 1063,
      "भवे": 1064,
      "cut": 1065,
      "ft": 1066,
      "hy": 1067,
      "तम्": 1068,
      "शन्": 1069,
      "number": 1070,
      "ro": 1071,
      "अन्य": 1072,
      "set": 1073,
      "प्रथ": 1074,
      "ings": 1075,
      "शक्नो": 1076,
      "called": 1077,
      "As": 1078,
      "दू": 1079,
      "ेन": 1080,
      "ark": 1081,
      "भवन्तः": 1082,
      "क्ति": 1083,
      "same": 1084,
      "टो": 1085,
      "सङ्": 1086,
      "rent": 1087,
      "arr": 1088,
      "print": 1089,
      "cond": 1090,
      "एता": 1091,
      "भु": 1092,
      "शी": 1093,
      "हर": 1094,
      "through": 1095,
      "स्वा": 1096,
      "भवान्": 1097,
      "Here": 1098,
      "ध्य": 1099,
      "न्न": 1100,
      "कृत्वा": 1101,
      "रिय": 1102,
      "press": 1103,
      "ton": 1104,
      "विवर": 1105,
      "field": 1106,
      "many": 1107,
      "wind": 1108,
      "अस्मिन्": 1109,
      "कस्य": 1110,
      "ask": 1111,
      "कृते": 1112,
      "यीशु": 1113,
      "Ty": 1114,
      "चन": 1115,
      "ैः": 1116,
      "ोपरि": 1117,
      "विकल्प": 1118,
      "क्षे": 1119,
      "मेण्ट्": 1120,
      ":\"": 1121,
      "ves": 1122,
      "उत्": 1123,
      "एवं": 1124,
      "कः": 1125,
      "बल्": 1126,
      "ली": 1127,
      "thy": 1128,
      "त्रा": 1129,
      "वयम्": 1130,
      "सञ्चिका": 1131,
      "Spoken": 1132,
      "ved": 1133,
      "वस्त": 1134,
      "load": 1135,
      "पेण": 1136,
      "बो": 1137,
      "सर": 1138,
      "button": 1139,
      "ानु": 1140,
      "अथवा": 1141,
      "ystem": 1142,
      "over": 1143,
      "यदा": 1144,
      "यतु": 1145,
      "त्व": 1146,
      "open": 1147,
      "चेत्": 1148,
      "Tutorial": 1149,
      "ms": 1150,
      "मां": 1151,
      "रक्ष": 1152,
      "ert": 1153,
      "योः": 1154,
      "ogram": 1155,
      "यामः": 1156,
      "sion": 1157,
      "used": 1158,
      "युष्म": 1159,
      "\"\"": 1160,
      "मया": 1161,
      "ताम्": 1162,
      "qual": 1163,
      "शक्नुमः": 1164,
      "क्लिक्": 1165,
      "dif": 1166,
      "ततः": 1167,
      "नू": 1168,
      "राम": 1169,
      "्वे": 1170,
      "itt": 1171,
      "विध": 1172,
      "There": 1173,
      "क्रिया": 1174,
      "क्षिण": 1175,
      "clo": 1176,
      "भी": 1177,
      "मानि": 1178,
      "साम": 1179,
      "only": 1180,
      "ally": 1181,
      "comp": 1182,
      "अर्": 1183,
      "वन्ति": 1184,
      "enter": 1185,
      "user": 1186,
      "स्मात्": 1187,
      "tory": 1188,
      "round": 1189,
      "00": 1190,
      "Fr": 1191,
      "ef": 1192,
      "fun": 1193,
      "त्या": 1194,
      "यः": 1195,
      "than": 1196,
      "ितवान्": 1197,
      "before": 1198,
      "hath": 1199,
      "less": 1200,
      "stru": 1201,
      "Boy": 1202,
      "self": 1203,
      "कुर्मः": 1204,
      "her": 1205,
      "शे": 1206,
      "move": 1207,
      "Chr": 1208,
      "time": 1209,
      "give": 1210,
      "she": 1211,
      "मृ": 1212,
      "शो": 1213,
      "्वा": 1214,
      "ese": 1215,
      "sed": 1216,
      "ments": 1217,
      "ci": 1218,
      "main": 1219,
      "text": 1220,
      "अप": 1221,
      "वन्तः": 1222,
      "left": 1223,
      "भवन्ति": 1224,
      "कृतव": 1225,
      "न्यू": 1226,
      "मुख": 1227,
      "good": 1228,
      "विषये": 1229,
      "घाट": 1230,
      "Save": 1231,
      "came": 1232,
      "ph": 1233,
      "नस्य": 1234,
      "भ्या": 1235,
      "every": 1236,
      "har": 1237,
      "test": 1238,
      "इन्": 1239,
      "तानि": 1240,
      "यतो": 1241,
      "because": 1242,
      "while": 1243,
      "image": 1244,
      "प्राप्": 1245,
      "वर्ण": 1246,
      "व्यव": 1247,
      "Ex": 1248,
      "ving": 1249,
      "where": 1250,
      "want": 1251,
      "आव": 1252,
      "ख्री": 1253,
      "गु": 1254,
      "दो": 1255,
      "वत्": 1256,
      "प्रका": 1257,
      "bet": 1258,
      "program": 1259,
      "पाठे": 1260,
      "layer": 1261,
      "नूत": 1262,
      "ख्रीष्ट": 1263,
      "king": 1264,
      "पं": 1265,
      "क्षा": 1266,
      "पश्यामः": 1267,
      "great": 1268,
      "पश्चात्": 1269,
      "Christ": 1270,
      "under": 1271,
      "चिन्": 1272,
      "पश्यन्तु": 1273,
      ":,": 1274,
      "tool": 1275,
      "ama": 1276,
      "tur": 1277,
      "ants": 1278,
      "after": 1279,
      "cour": 1280,
      "thee": 1281,
      "hel": 1282,
      "येत": 1283,
      "ग्रा": 1284,
      "both": 1285,
      "diffe": 1286,
      "equal": 1287,
      "एक्": 1288,
      "यस्य": 1289,
      "inu": 1290,
      "स्ते": 1291,
      "भवतां": 1292,
      "करोमि": 1293,
      "tem": 1294,
      "रियल्": 1295,
      "cur": 1296,
      "अग्र": 1297,
      "दत्त": 1298,
      "ote": 1299,
      "key": 1300,
      "टङ्कयन्तु": 1301,
      "change": 1302,
      "window": 1303,
      "St": 1304,
      "ake": 1305,
      "cr": 1306,
      "fin": 1307,
      "tab": 1308,
      "दक्षिण": 1309,
      "नम्": 1310,
      "ऽपि": 1311,
      "िका": 1312,
      "वाम": 1313,
      "ample": 1314,
      "Ar": 1315,
      "ces": 1316,
      "pass": 1317,
      "web": 1318,
      "दर्शयति": 1319,
      "इदानीं": 1320,
      "link": 1321,
      "sing": 1322,
      "ख्या": 1323,
      "गी": 1324,
      "ट्यु": 1325,
      "ical": 1326,
      "पार्": 1327,
      "मुद्रा": 1328,
      "sub": 1329,
      "create": 1330,
      "dat": 1331,
      "आगच्छ": 1332,
      "एते": 1333,
      "गत्वा": 1334,
      "तया": 1335,
      "inst": 1336,
      "ory": 1337,
      "vel": 1338,
      "Acc": 1339,
      "De": 1340,
      "ator": 1341,
      "bar": 1342,
      "प्य": 1343,
      "न्स्": 1344,
      "ople": 1345,
      "स्थि": 1346,
      "कथं": 1347,
      "उद्घाट": 1348,
      "ट्युटो": 1349,
      "Li": 1350,
      "ध्व": 1351,
      "क्ट्": 1352,
      "ication": 1353,
      "been": 1354,
      "beli": 1355,
      "oll": 1356,
      "These": 1357,
      "ङ्ग्": 1358,
      "object": 1359,
      "युष्माकं": 1360,
      "cle": 1361,
      "par": 1362,
      "उत्त": 1363,
      "योक्त": 1364,
      "इतीद": 1365,
      "सम्य": 1366,
      "दृश्यते": 1367,
      "Be": 1368,
      "ah": 1369,
      "blo": 1370,
      "vis": 1371,
      "जान": 1372,
      "ेण": 1373,
      "deta": 1374,
      "निष्": 1375,
      "मेथ": 1376,
      "prop": 1377,
      "किञ्च": 1378,
      "make": 1379,
      "What": 1380,
      "सूच": 1381,
      "record": 1382,
      "जीव": 1383,
      "la": 1384,
      "तत्र": 1385,
      "पर्": 1386,
      "यित": 1387,
      "वन्तु": 1388,
      "tern": 1389,
      "चिनो": 1390,
      "ष्टुं": 1391,
      "quest": 1392,
      "रूपेण": 1393,
      "बु": 1394,
      "न्त्र": 1395,
      "म्म": 1396,
      "head": 1397,
      "पुनः": 1398,
      "brack": 1399,
      "ट्युटोरियल्": 1400,
      "bracket": 1401,
      "Ub": 1402,
      "fer": 1403,
      "gin": 1404,
      "ses": 1405,
      "ars": 1406,
      "इत्यस्मै": 1407,
      "पुन": 1408,
      "शिक्ष": 1409,
      "निर्मा": 1410,
      "displays": 1411,
      "help": 1412,
      "each": 1413,
      "mb": 1414,
      "ning": 1415,
      "ward": 1416,
      "ील्": 1417,
      "atic": 1418,
      "arch": 1419,
      "क्ला": 1420,
      "भवन्त": 1421,
      "untu": 1422,
      "अधिक": 1423,
      "output": 1424,
      "अस्माभिः": 1425,
      "चिन्वन्तु": 1426,
      "Ubuntu": 1427,
      "sl": 1428,
      "श्वे": 1429,
      "ship": 1430,
      "पुत्र": 1431,
      "Sh": 1432,
      "nam": 1433,
      "pp": 1434,
      "sup": 1435,
      "कां": 1436,
      "वी": 1437,
      "ेषु": 1438,
      "ों": 1439,
      "rect": 1440,
      "ष्ण": 1441,
      "need": 1442,
      "please": 1443,
      "check": 1444,
      "different": 1445,
      "cate": 1446,
      "wit": 1447,
      "पी": 1448,
      "भार": 1449,
      "र्त": 1450,
      "ener": 1451,
      "ought": 1452,
      "look": 1453,
      "brary": 1454,
      "mail": 1455,
      "saying": 1456,
      "fault": 1457,
      "उपयुज्य": 1458,
      "inux": 1459,
      "cor": 1460,
      "डे": 1461,
      "समा": 1462,
      "हू": 1463,
      "तिष्ठ": 1464,
      "people": 1465,
      "शक्नोति": 1466,
      "Type": 1467,
      "Next": 1468,
      "hi": 1469,
      "तर": 1470,
      "लै": 1471,
      "देव": 1472,
      "appe": 1473,
      "श्वास": 1474,
      "Account": 1475,
      "ील्ड्": 1476,
      "Ctr": 1477,
      "Linux": 1478,
      "gl": 1479,
      "कू": 1480,
      "डा": 1481,
      "ब्र": 1482,
      "्यां": 1483,
      "नास्ति": 1484,
      "निमित": 1485,
      "cho": 1486,
      "ages": 1487,
      "लोका": 1488,
      "बहु": 1489,
      "क्लास्": 1490,
      "Ctrl": 1491,
      "निमित्त": 1492,
      "ecut": 1493,
      "water": 1494,
      "शक": 1495,
      "They": 1496,
      ";\"": 1497,
      "bu": 1498,
      "cess": 1499,
      "att": 1500,
      "परी": 1501,
      "नाम्": 1502,
      "केव": 1503,
      "food": 1504,
      "हाय": 1505,
      "value": 1506,
      "Add": 1507,
      "details": 1508,
      "row": 1509,
      "आग": 1510,
      "कानि": 1511,
      "गो": 1512,
      "डी": 1513,
      "नम": 1514,
      "मनु": 1515,
      "another": 1516,
      "ond": 1517,
      "whom": 1518,
      "क्ष्य": 1519,
      "किमपि": 1520,
      "files": 1521,
      "very": 1522,
      "उपयोक्त": 1523,
      "assign": 1524,
      "book": 1525,
      "मेथड्": 1526,
      "slash": 1527,
      "20": 1528,
      "Man": 1529,
      "णम्": 1530,
      "नल्": 1531,
      "रम्": 1532,
      "र्या": 1533,
      "inter": 1534,
      "ates": 1535,
      "stand": 1536,
      "code": 1537,
      "turn": 1538,
      "hold": 1539,
      "pat": 1540,
      "sm": 1541,
      "खा": 1542,
      "वान": 1543,
      "err": 1544,
      "alk": 1545,
      "न्ध": 1546,
      "start": 1547,
      "मिति": 1548,
      "execut": 1549,
      "येन": 1550,
      "इतीमानि": 1551,
      "try": 1552,
      "fox": 1553,
      "made": 1554,
      "स्ट्र": 1555,
      "Go": 1556,
      "ID": 1557,
      "Ind": 1558,
      "jo": 1559,
      "ls": 1560,
      "mult": 1561,
      "पठ": 1562,
      "प्रत्य": 1563,
      "च्च": 1564,
      "ण्ड्": 1565,
      "द्रष्टुं": 1566,
      "अनन्तरं": 1567,
      "द्वारा": 1568,
      "function": 1569,
      "run": 1570,
      "अभ्या": 1571,
      "कान्": 1572,
      "जनं": 1573,
      "वित": 1574,
      "hed": 1575,
      "ilable": 1576,
      "ions": 1577,
      "ush": 1578,
      "कृत": 1579,
      "उपयोग": 1580,
      "नुदतु": 1581,
      "द्धं": 1582,
      "raw": 1583,
      "Pro": 1584,
      "pos": 1585,
      "write": 1586,
      "following": 1587,
      "जेक्ट्": 1588,
      "Ko": 1589,
      "MP": 1590,
      "list": 1591,
      "mark": 1592,
      "next": 1593,
      "पङ्": 1594,
      "सै": 1595,
      "ating": 1596,
      "prom": 1597,
      "अधः": 1598,
      "लेख": 1599,
      "कार्य": 1600,
      "स्टे": 1601,
      "........": 1602,
      "आवश्य": 1603,
      "Fire": 1604,
      "dom": 1605,
      "ide": 1606,
      "pres": 1607,
      "sim": 1608,
      "tx": 1609,
      "पै": 1610,
      "those": 1611,
      "alog": 1612,
      "state": 1613,
      "odu": 1614,
      "pract": 1615,
      "aint": 1616,
      "रिये": 1617,
      "जाल": 1618,
      "take": 1619,
      "ज्ञास्य": 1620,
      "सीत्": 1621,
      "शक्नुवन्ति": 1622,
      "awk": 1623,
      "पूर्ण": 1624,
      "Koha": 1625,
      "txt": 1626,
      "CT": 1627,
      "File": 1628,
      "ia": 1629,
      "lin": 1630,
      "uch": 1631,
      "आप": 1632,
      "तद्": 1633,
      "षि": 1634,
      "rece": 1635,
      "ouse": 1636,
      "dev": 1637,
      "import": 1638,
      "place": 1639,
      "कोर्": 1640,
      "अहम्": 1641,
      "given": 1642,
      "ग्राम्": 1643,
      "()": 1644,
      ":।": 1645,
      "au": 1646,
      "ather": 1647,
      "ground": 1648,
      "pow": 1649,
      "तथ": 1650,
      "ank": 1651,
      "ान्य": 1652,
      "काले": 1653,
      "odle": 1654,
      "वेरिये": 1655,
      "र्थम्": 1656,
      "Select": 1657,
      "शरीर": 1658,
      "प्रथम": 1659,
      "वेरियेबल्": 1660,
      "ner": 1661,
      "sin": 1662,
      "कदा": 1663,
      "तान्": 1664,
      "ददा": 1665,
      "सः": 1666,
      "परे": 1667,
      "within": 1668,
      "वृत्त": 1669,
      "An": 1670,
      "med": 1671,
      "ption": 1672,
      "आदेश": 1673,
      "गण": 1674,
      "तृ": 1675,
      "लम्": 1676,
      "हस्त": 1677,
      "default": 1678,
      "example": 1679,
      "स्थाने": 1680,
      "सर्व्वे": 1681,
      "disc": 1682,
      "available": 1683,
      "dou": 1684,
      "done": 1685,
      "mus": 1686,
      "must": 1687,
      "na": 1688,
      "sy": 1689,
      "went": 1690,
      "इस": 1691,
      "कट": 1692,
      "बि": 1693,
      "भ्र": 1694,
      "पर्य": 1695,
      "char": 1696,
      "समये": 1697,
      "पुट": 1698,
      "स्थित": 1699,
      "विषय": 1700,
      "even": 1701,
      "प्रोग्राम्": 1702,
      "menu": 1703,
      "भवेत्": 1704,
      "Firefox": 1705,
      "pen": 1706,
      "ya": 1707,
      "णी": 1708,
      "त्ये": 1709,
      "बहि": 1710,
      "भ्रा": 1711,
      "यतः": 1712,
      "्रो": 1713,
      "leg": 1714,
      "कास": 1715,
      "भवत्": 1716,
      "इत्या": 1717,
      "ables": 1718,
      "comple": 1719,
      "ify": 1720,
      "world": 1721,
      "variable": 1722,
      "भविष्यति": 1723,
      "निमित्तं": 1724,
      "Ed": 1725,
      "OS": 1726,
      "Stu": 1727,
      "cop": 1728,
      "ither": 1729,
      "plo": 1730,
      "scri": 1731,
      "नग": 1732,
      "भे": 1733,
      "स्पो": 1734,
      "न्द": 1735,
      "कृति": 1736,
      "स्थान": 1737,
      "ष्यति": 1738,
      "णार्थं": 1739,
      "formation": 1740,
      "पृष्ठ": 1741,
      "course": 1742,
      "शक्यते": 1743,
      "error": 1744,
      "Ser": 1745,
      "pes": 1746,
      "vo": 1747,
      "जना": 1748,
      "ons": 1749,
      "als": 1750,
      "ell": 1751,
      "साध": 1752,
      "स्वी": 1753,
      "teach": 1754,
      "power": 1755,
      "athing": 1756,
      "home": 1757,
      "ost": 1758,
      "टा": 1759,
      "पति": 1760,
      "मत्र": 1761,
      "ुः": 1762,
      "त्म": 1763,
      "प्रयोग": 1764,
      "वाद": 1765,
      "ween": 1766,
      "life": 1767,
      "मधुना": 1768,
      "aven": 1769,
      "When": 1770,
      "पृथ": 1771,
      "करणीय": 1772,
      "युष्मान्": 1773,
      "between": 1774,
      "Stud": 1775,
      "Cre": 1776,
      "Name": 1777,
      "mind": 1778,
      "yes": 1779,
      "अपर": 1780,
      "णानि": 1781,
      "तत": 1782,
      "महा": 1783,
      "परित": 1784,
      "etc": 1785,
      "child": 1786,
      "दाहर": 1787,
      "lip": 1788,
      "कुर्या": 1789,
      "ange": 1790,
      "सर्वा": 1791,
      "color": 1792,
      "ready": 1793,
      "Library": 1794,
      "Sup": 1795,
      "ctor": 1796,
      "ues": 1797,
      "ven": 1798,
      "चर": 1799,
      "बद्ध": 1800,
      "मी": 1801,
      "section": 1802,
      "भवद्": 1803,
      "श्चि": 1804,
      "pect": 1805,
      "light": 1806,
      "essage": 1807,
      "minis": 1808,
      "minal": 1809,
      "किञ्चन": 1810,
      "face": 1811,
      "long": 1812,
      "अपरं": 1813,
      "घट": 1814,
      "शं": 1815,
      "प्रत्ये": 1816,
      "ितम्": 1817,
      "करें": 1818,
      "ङ्क्": 1819,
      "ters": 1820,
      "राज": 1821,
      "पश्याम": 1822,
      "direc": 1823,
      "टङ्कयित्वा": 1824,
      "categ": 1825,
      "ME": 1826,
      "bot": 1827,
      "found": 1828,
      "hal": 1829,
      "might": 1830,
      "sent": 1831,
      "अप्": 1832,
      "ततो": 1833,
      "न्या": 1834,
      "ोऽ": 1835,
      "स्वर": 1836,
      "वाक": 1837,
      "नुत्वा": 1838,
      "shown": 1839,
      "णाय": 1840,
      "कथां": 1841,
      "तवन्तः": 1842,
      "therefore": 1843,
      "Book": 1844,
      "दृष्टुं": 1845,
      "array": 1846,
      "Do": 1847,
      "शब्": 1848,
      "त्थ": 1849,
      "इत्यनेन": 1850,
      "कोड्": 1851,
      "ely": 1852,
      "irit": 1853,
      "saith": 1854,
      "सर्वे": 1855,
      "करोतु": 1856,
      "project": 1857,
      "colour": 1858,
      "पार्श्वे": 1859,
      "Des": 1860,
      "Father": 1861,
      "cul": 1862,
      "ger": 1863,
      "nor": 1864,
      "pri": 1865,
      "ze": 1866,
      "एष": 1867,
      "गम": 1868,
      "धी": 1869,
      "बन्ध": 1870,
      "return": 1871,
      "ature": 1872,
      "त्रं": 1873,
      "show": 1874,
      "such": 1875,
      "द्वित": 1876,
      "Moodle": 1877,
      "System": 1878,
      "Wel": 1879,
      "cent": 1880,
      "cha": 1881,
      "sum": 1882,
      "गि": 1883,
      "छा": 1884,
      "णस्य": 1885,
      "ोल्": 1886,
      "asana": 1887,
      "नाय": 1888,
      "eter": 1889,
      "मिदं": 1890,
      "ager": 1891,
      "oper": 1892,
      "क्ते": 1893,
      "चिन्त": 1894,
      "That": 1895,
      "कुरु": 1896,
      "क्री": 1897,
      "भाव": 1898,
      "tak": 1899,
      "earth": 1900,
      "गृह": 1901,
      "ईश्वरस्य": 1902,
      "Al": 1903,
      "did": 1904,
      "sto": 1905,
      "system": 1906,
      "आन": 1907,
      "जग": 1908,
      "डौ": 1909,
      "ल्य": 1910,
      "वै": 1911,
      "think": 1912,
      "information": 1913,
      "search": 1914,
      "प्रि": 1915,
      "वाक्य": 1916,
      "version": 1917,
      "plants": 1918,
      "संयोज": 1919,
      "upon": 1920,
      "स्मिन": 1921,
      "कार्यं": 1922,
      "dialog": 1923,
      "हैं": 1924,
      "selected": 1925,
      "विद्यमानं": 1926,
      "Front": 1927,
      "phen": 1928,
      "स्थिति": 1929,
      "witch": 1930,
      "Project": 1931,
      "ददाति": 1932,
      "Edit": 1933,
      "स्पोकन्": 1934,
      "Welcome": 1935,
      "Con": 1936,
      "How": 1937,
      "bit": 1938,
      "case": 1939,
      "gn": 1940,
      "pare": 1941,
      "site": 1942,
      "यन्ति": 1943,
      "न्तं": 1944,
      "sequ": 1945,
      "heaven": 1946,
      "ily": 1947,
      "स्तर": 1948,
      "comes": 1949,
      "स्माकं": 1950,
      "इत्यस्योपरि": 1951,
      "भिन्न": 1952,
      "oga": 1953,
      "वयमधुना": 1954,
      "serve": 1955,
      "faith": 1956,
      "कर्ष": 1957,
      "मूल्यं": 1958,
      "सङ्ख्या": 1959,
      "Accounting": 1960,
      "ICT": 1961,
      "My": 1962,
      "draw": 1963,
      "law": 1964,
      "would": 1965,
      "अनेन": 1966,
      "उदाहर": 1967,
      "फै": 1968,
      "फील्ड्": 1969,
      "requ": 1970,
      "प्रश्": 1971,
      "off": 1972,
      "विश्वा": 1973,
      "plication": 1974,
      "ations": 1975,
      "पूर": 1976,
      "struct": 1977,
      "शेष": 1978,
      "प्रकाश": 1979,
      "assignment": 1980,
      "ज्ञास्यामः": 1981,
      "lines": 1982,
      "Student": 1983,
      "Sa": 1984,
      "eous": 1985,
      "ping": 1986,
      "tri": 1987,
      "ची": 1988,
      "जि": 1989,
      "दश": 1990,
      "मर्": 1991,
      "ाद्": 1992,
      "toge": 1993,
      "प्रभु": 1994,
      "edit": 1995,
      "ices": 1996,
      "love": 1997,
      "अधि": 1998,
      "means": 1999,
      "सार्": 2000,
      "ज्ञान": 2001,
      "मानं": 2002,
      "कर्त्त": 2003,
      "ण्डं": 2004,
      "वृक्ष": 2005,
      "तदर्थं": 2006,
      "process": 2007,
      "speak": 2008,
      "drop": 2009,
      "hyphen": 2010,
      "एक्सि": 2011,
      "data": 2012,
      "bottom": 2013,
      "डौन्": 2014,
      "together": 2015,
      "04": 2016,
      "ST": 2017,
      "eve": 2018,
      "ode": 2019,
      "sli": 2020,
      "ted": 2021,
      "वत": 2022,
      "वां": 2023,
      "स्तु": 2024,
      "किन्त": 2025,
      "किञ्चि": 2026,
      "loop": 2027,
      "चिह्": 2028,
      "ource": 2029,
      "memb": 2030,
      "erson": 2031,
      "रूप": 2032,
      "created": 2033,
      "इत्येतत्": 2034,
      "कर्म्म": 2035,
      "क्यू": 2036,
      "hands": 2037,
      "अग्रि": 2038,
      "lipse": 2039,
      "Press": 2040,
      "ax": 2041,
      "cast": 2042,
      "cert": 2043,
      "sha": 2044,
      "एका": 2045,
      "थे": 2046,
      "द्या": 2047,
      "वन्त": 2048,
      "ऽस्मिन्": 2049,
      "योजन": 2050,
      "fru": 2051,
      "save": 2052,
      "श्वरस्य": 2053,
      "iples": 2054,
      "णेन": 2055,
      "भोजन": 2056,
      "against": 2057,
      "चाल": 2058,
      "केवलं": 2059,
      "Com": 2060,
      "Is": 2061,
      "Java": 2062,
      "Or": 2063,
      "date": 2064,
      "eyes": 2065,
      "table": 2066,
      "ures": 2067,
      "अन्त": 2068,
      "टी": 2069,
      "सत्य": 2070,
      "विभाग": 2071,
      "being": 2072,
      "ताः": 2073,
      "क्तं": 2074,
      "ष्यते": 2075,
      "सेट्": 2076,
      "तवान्": 2077,
      "देशं": 2078,
      "father": 2079,
      "point": 2080,
      "learnt": 2081,
      "टेक्स्": 2082,
      "नूतनं": 2083,
      "FrontAccounting": 2084,
      "12": 2085,
      "just": 2086,
      "mon": 2087,
      "mis": 2088,
      "wise": 2089,
      "घु": 2090,
      "नाना": 2091,
      "यह": 2092,
      "यम्": 2093,
      "ानाम": 2094,
      "atch": 2095,
      "प्रक्रिया": 2096,
      "प्रकट": 2097,
      "heart": 2098,
      "विचार": 2099,
      "action": 2100,
      "मार्ग": 2101,
      "begin": 2102,
      "भवत": 2103,
      "fig": 2104,
      "ष्टं": 2105,
      "ular": 2106,
      "पुट्": 2107,
      "ains": 2108,
      "रेण": 2109,
      "ब्जेक्ट्": 2110,
      "serv": 2111,
      "भोजनं": 2112,
      "selves": 2113,
      "options": 2114,
      "एतादृश": 2115,
      "सामान्य": 2116,
      "निष्कास": 2117,
      "double": 2118,
      "NA": 2119,
      "Not": 2120,
      "ele": 2121,
      "house": 2122,
      "ove": 2123,
      "जल": 2124,
      "णो": 2125,
      "तस्मिन्": 2126,
      "नै": 2127,
      "फा": 2128,
      "बी": 2129,
      "मन": 2130,
      "हु": 2131,
      "ृत्य": 2132,
      "lease": 2133,
      "well": 2134,
      "eta": 2135,
      "oke": 2136,
      "tro": 2137,
      "साक्ष": 2138,
      "ष्यन्ति": 2139,
      "feren": 2140,
      "tutorials": 2141,
      "द्धि": 2142,
      "क्रियते": 2143,
      "श्रु": 2144,
      "----": 2145,
      "फलितं": 2146,
      "gives": 2147,
      "IDE": 2148,
      "++": 2149,
      "eth": 2150,
      "ii": 2151,
      "दीय": 2152,
      "पञ्च": 2153,
      "पवित": 2154,
      "reg": 2155,
      "प्रदर्शयति": 2156,
      "heard": 2157,
      "icon": 2158,
      "विना": 2159,
      "काः": 2160,
      "द्वे": 2161,
      "निय": 2162,
      "terminal": 2163,
      "ird": 2164,
      "contr": 2165,
      "mother": 2166,
      "fect": 2167,
      "angle": 2168,
      "टङ्कयतु": 2169,
      "इत्येतेषां": 2170,
      "रचना": 2171,
      "various": 2172,
      "ize": 2173,
      "values": 2174,
      "student": 2175,
      "प्राप्नु": 2176,
      "Manager": 2177,
      "small": 2178,
      "एक्सिक्यू": 2179,
      "11": 2180,
      "After": 2181,
      "Son": 2182,
      "Te": 2183,
      "af": 2184,
      "cum": 2185,
      "eat": 2186,
      "message": 2187,
      "sal": 2188,
      "ंग": 2189,
      "गतम्": 2190,
      "तौ": 2191,
      "नानि": 2192,
      "फि": 2193,
      "मै": 2194,
      "रख": 2195,
      "लभ्य": 2196,
      "सन्त": 2197,
      "second": 2198,
      "विण्ड": 2199,
      "above": 2200,
      "without": 2201,
      "केन": 2202,
      "स्वर्ग": 2203,
      "जायते": 2204,
      "भाष": 2205,
      "यिहू": 2206,
      "पूर्व्व": 2207,
      "प्रेष": 2208,
      "condition": 2209,
      "बोक्स्": 2210,
      "अर्था": 2211,
      "पङ्क्त": 2212,
      "voice": 2213,
      "Create": 2214,
      "कुर्यात": 2215,
      "directory": 2216,
      "Ap": 2217,
      "New": 2218,
      "eye": 2219,
      "tre": 2220,
      "ten": 2221,
      "कथा": 2222,
      "जानी": 2223,
      "धर्": 2224,
      "बे": 2225,
      "ब्रे": 2226,
      "मौ": 2227,
      "रन्": 2228,
      "रचित": 2229,
      "सां": 2230,
      "rest": 2231,
      "already": 2232,
      "प्रभो": 2233,
      "among": 2234,
      "परा": 2235,
      "करि": 2236,
      "त्रे": 2237,
      "ared": 2238,
      "प्रार्थ": 2239,
      "स्माद्": 2240,
      "जाता": 2241,
      "Who": 2242,
      "लिखन्तु": 2243,
      "displayed": 2244,
      "words": 2245,
      "clean": 2246,
      "choose": 2247,
      "तथैव": 2248,
      "disciples": 2249,
      "\".": 2250,
      "Set": 2251,
      "Tr": 2252,
      "ht": 2253,
      "ired": 2254,
      "दौ": 2255,
      "भग": 2256,
      "मश": 2257,
      "शक्ति": 2258,
      "सति": 2259,
      "”.": 2260,
      "्रं": 2261,
      "वारं": 2262,
      "भवित": 2263,
      "happ": 2264,
      "opens": 2265,
      "abase": 2266,
      "कृप": 2267,
      "lier": 2268,
      "स्थानं": 2269,
      "order": 2270,
      "पेक्ष": 2271,
      "कील": 2272,
      "away": 2273,
      "अनुशिक्ष": 2274,
      "organ": 2275,
      "स्वागतम्": 2276,
      "व्यवस्था": 2277,
      "believe": 2278,
      "यितुम्": 2279,
      "prompt": 2280,
      "ministr": 2281,
      "sequence": 2282,
      "Dis": 2283,
      "Su": 2284,
      "Str": 2285,
      "aj": 2286,
      "cy": 2287,
      "ced": 2288,
      "eas": 2289,
      "rit": 2290,
      "son": 2291,
      "sor": 2292,
      "uth": 2293,
      "अत": 2294,
      "आर": 2295,
      "ऐकान्": 2296,
      "कता": 2297,
      "पद": 2298,
      "यद्": 2299,
      "three": 2300,
      "asic": 2301,
      "वाच": 2302,
      "otes": 2303,
      "त्रि": 2304,
      "यों": 2305,
      "कृष्ण": 2306,
      "ञ्ज": 2307,
      "लिङ्क्": 2308,
      "most": 2309,
      "whole": 2310,
      "ledge": 2311,
      "वस्तु": 2312,
      "इतीदम्": 2313,
      "brackets": 2314,
      "अभ्यास": 2315,
      "statement": 2316,
      "ploye": 2317,
      "children": 2318,
      "last": 2319,
      "ww": 2320,
      "अभि": 2321,
      "इव": 2322,
      "चय": 2323,
      "तीय": 2324,
      "पौ": 2325,
      "हार": 2326,
      "ूल्": 2327,
      "inside": 2328,
      "ities": 2329,
      "केट्": 2330,
      "ift": 2331,
      "himself": 2332,
      "सेव": 2333,
      "तस्या": 2334,
      "स्मर": 2335,
      "कुर्वन्ति": 2336,
      "निर्दि": 2337,
      "ानाम्": 2338,
      "लिखित": 2339,
      "दोष": 2340,
      "201": 2341,
      "ployee": 2342,
      "50": 2343,
      "fl": 2344,
      "fil": 2345,
      "four": 2346,
      "pose": 2347,
      "sol": 2348,
      "आसीत्": 2349,
      "इच्छ": 2350,
      "ओब्जेक्ट्": 2351,
      "तम": 2352,
      "तस्मात्": 2353,
      "दण्ड": 2354,
      "धः": 2355,
      "वो": 2356,
      "ष्या": 2357,
      "सप्त": 2358,
      "ilar": 2359,
      "मार्": 2360,
      "परस्": 2361,
      "निज": 2362,
      "तादृश": 2363,
      "किम्": 2364,
      "fied": 2365,
      "live": 2366,
      "expl": 2367,
      "मध्य": 2368,
      "समु": 2369,
      "result": 2370,
      "saw": 2371,
      "does": 2372,
      "whose": 2373,
      "sure": 2374,
      "एतानि": 2375,
      "breathing": 2376,
      "ानुसार": 2377,
      "block": 2378,
      "चिनोमि": 2379,
      "wards": 2380,
      "practice": 2381,
      "category": 2382,
      "टेक्स्ट्": 2383,
      "air": 2384,
      "iles": 2385,
      "mic": 2386,
      "sk": 2387,
      "आसन": 2388,
      "एषा": 2389,
      "औट्": 2390,
      "डो": 2391,
      "तन्": 2392,
      "inde": 2393,
      "oun": 2394,
      "कार्": 2395,
      "area": 2396,
      "bring": 2397,
      "सूर्य": 2398,
      "folder": 2399,
      "कूर्": 2400,
      "multi": 2401,
      "वाक्यं": 2402,
      "प्रकटयति": 2403,
      "एक्सिक्यूट्": 2404,
      "By": 2405,
      "GI": 2406,
      "La": 2407,
      "ON": 2408,
      "Pa": 2409,
      "ale": 2410,
      "bes": 2411,
      "clipse": 2412,
      "flow": 2413,
      "path": 2414,
      "कश्चि": 2415,
      "गण्डं": 2416,
      "भक्त": 2417,
      "मन्य": 2418,
      "सङ्ग": 2419,
      "्यम्": 2420,
      "त्वे": 2421,
      "hear": 2422,
      "ामहे": 2423,
      "wered": 2424,
      "पाल": 2425,
      "adi": 2426,
      "ply": 2427,
      "वर्त्त": 2428,
      "इत्यस्या": 2429,
      "ग्रन्": 2430,
      "सिद्ध": 2431,
      "यामा": 2432,
      "क्रिय": 2433,
      "answered": 2434,
      "variables": 2435,
      "writt": 2436,
      "मुद्राप": 2437,
      "marks": 2438,
      "important": 2439,
      "written": 2440,
      "AMP": 2441,
      "Bre": 2442,
      "Che": 2443,
      "Kr": 2444,
      "On": 2445,
      "XAMP": 2446,
      "mod": 2447,
      "mount": 2448,
      "roll": 2449,
      "अन्": 2450,
      "तै": 2451,
      "धान": 2452,
      "मत्": 2453,
      "लू": 2454,
      "व्यं": 2455,
      "ीति": 2456,
      "thren": 2457,
      "anim": 2458,
      "lete": 2459,
      "प्रवि": 2460,
      "प्रार": 2461,
      "static": 2462,
      "decl": 2463,
      "forth": 2464,
      "oly": 2465,
      "pray": 2466,
      "produ": 2467,
      "चित्वा": 2468,
      "els": 2469,
      "ull": 2470,
      "पुस्त": 2471,
      "ained": 2472,
      "irst": 2473,
      "कर्तुम्": 2474,
      "application": 2475,
      "मुप": 2476,
      "string": 2477,
      "ानीं": 2478,
      "righteous": 2479,
      "known": 2480,
      "knowledge": 2481,
      "टेब्": 2482,
      "गृह्": 2483,
      "फ़ै": 2484,
      "vide": 2485,
      "view": 2486,
      "शक्नोमि": 2487,
      "close": 2488,
      "structor": 2489,
      "helps": 2490,
      "execute": 2491,
      "स्टेट्": 2492,
      "XAMPP": 2493,
      ").": 2494,
      "Cont": 2495,
      "First": 2496,
      "NME": 2497,
      "Sam": 2498,
      "find": 2499,
      "gg": 2500,
      "ible": 2501,
      "ks": 2502,
      "ts": 2503,
      "tree": 2504,
      "एडि": 2505,
      "चल": 2506,
      "डर्": 2507,
      "मन्": 2508,
      "ara": 2509,
      "प्रकार": 2510,
      "विश्र": 2511,
      "विशेष": 2512,
      "step": 2513,
      "माण": 2514,
      "defin": 2515,
      "पुरु": 2516,
      "keep": 2517,
      "umn": 2518,
      "brought": 2519,
      "indic": 2520,
      "selection": 2521,
      "Child": 2522,
      "प्राप्तुं": 2523,
      "टिका": 2524,
      "सञ्चिकां": 2525,
      "सनम्": 2526,
      "works": 2527,
      "access": 2528,
      "कृतवान्": 2529,
      "blood": 2530,
      "चिनोतु": 2531,
      "named": 2532,
      "र्त्त": 2533,
      "परीक्ष": 2534,
      "pattern": 2535,
      "legs": 2536,
      "NMEICT": 2537,
      "'.": 2538,
      "16": 2539,
      "30": 2540,
      "Em": 2541,
      "OK": 2542,
      "Please": 2543,
      "cus": 2544,
      "call": 2545,
      "fing": 2546,
      "ktop": 2547,
      "sit": 2548,
      "switch": 2549,
      "कम": 2550,
      "चतु": 2551,
      "नीय": 2552,
      "यत्र": 2553,
      "incre": 2554,
      "seen": 2555,
      "क्ष्": 2556,
      "क्वे": 2557,
      "ics": 2558,
      "विश्व": 2559,
      "तेषु": 2560,
      "stre": 2561,
      "इत्यस्मात्": 2562,
      "मिल": 2563,
      "्याः": 2564,
      "ङ्क्ष": 2565,
      "मेकं": 2566,
      "समर्": 2567,
      "neither": 2568,
      "शिष्ट": 2569,
      "apt": 2570,
      "board": 2571,
      "वर्ध": 2572,
      "स्टा": 2573,
      "गच्छति": 2574,
      "format": 2575,
      "वदत्": 2576,
      "added": 2577,
      "changes": 2578,
      "समीप": 2579,
      "ittle": 2580,
      "lesson": 2581,
      "install": 2582,
      "velop": 2583,
      "objects": 2584,
      "appears": 2585,
      "teacher": 2586,
      "सर्वाणि": 2587,
      "सार्द्धं": 2588,
      "All": 2589,
      "Hel": 2590,
      "Up": 2591,
      "bal": 2592,
      "car": 2593,
      "ho": 2594,
      "jun": 2595,
      "kind": 2596,
      "pal": 2597,
      "अस्म": 2598,
      "गे": 2599,
      "चर्": 2600,
      "दद": 2601,
      "वः": 2602,
      "ृह": 2603,
      "incl": 2604,
      "ata": 2605,
      "न्द्र": 2606,
      "त्री": 2607,
      "und": 2608,
      "shal": 2609,
      "कृतं": 2610,
      "अधो": 2611,
      "ording": 2612,
      "brush": 2613,
      "भ्यो": 2614,
      "हेतो": 2615,
      "suf": 2616,
      "ज्ञातवन्तः": 2617,
      "perform": 2618,
      "इदम्": 2619,
      "earch": 2620,
      "download": 2621,
      "address": 2622,
      "brethren": 2623,
      "ways": 2624,
      "account": 2625,
      "उत्था": 2626,
      "prophe": 2627,
      "question": 2628,
      "अधिकविवर": 2629,
      "high": 2630,
      "India": 2631,
      "receive": 2632,
      "अपरञ्च": 2633,
      "स्वरू": 2634,
      "Sales": 2635,
      "mission": 2636,
      "II": 2637,
      "Lo": 2638,
      "ered": 2639,
      "nature": 2640,
      "paint": 2641,
      "ting": 2642,
      "vid": 2643,
      "ऐं": 2644,
      "महं": 2645,
      "यन्": 2646,
      "षाम": 2647,
      "सौ": 2648,
      "स्र": 2649,
      "ोप": 2650,
      "ones": 2651,
      "took": 2652,
      "outh": 2653,
      "stra": 2654,
      "काल": 2655,
      "स्तं": 2656,
      "द्वि": 2657,
      "users": 2658,
      "अधस्त": 2659,
      "true": 2660,
      "quotes": 2661,
      "brow": 2662,
      "ग्रे": 2663,
      "णात्": 2664,
      "बार्": 2665,
      "worship": 2666,
      "minus": 2667,
      "भूत": 2668,
      "nothing": 2669,
      "ान्ति": 2670,
      "पृष्ट": 2671,
      "पाठेऽस्मिन्": 2672,
      "password": 2673,
      "present": 2674,
      "शब्द": 2675,
      "control": 2676,
      "अर्थात्": 2677,
      "AR": 2678,
      "Bl": 2679,
      "Search": 2680,
      "Wind": 2681,
      "__": 2682,
      "basic": 2683,
      "city": 2684,
      "fle": 2685,
      "ief": 2686,
      "ox": 2687,
      "ying": 2688,
      "अरे": 2689,
      "कै": 2690,
      "गति": 2691,
      "जो": 2692,
      "ज्यते": 2693,
      "तत्त": 2694,
      "थि": 2695,
      "नन्तरं": 2696,
      "हम्": 2697,
      "ished": 2698,
      "atur": 2699,
      "क्ले": 2700,
      "edi": 2701,
      "hale": 2702,
      "मेन्यू": 2703,
      "्येन": 2704,
      "Those": 2705,
      "note": 2706,
      "trans": 2707,
      "राणि": 2708,
      "respect": 2709,
      "ग्रह": 2710,
      "ogle": 2711,
      "शिर": 2712,
      "rade": 2713,
      "ज्ञाप": 2714,
      "server": 2715,
      "शाल": 2716,
      "Change": 2717,
      "gets": 2718,
      "यीश": 2719,
      "भागे": 2720,
      "विकल्पं": 2721,
      "ख्रीष्टस्य": 2722,
      "kingdom": 2723,
      "understand": 2724,
      "कोर्स्": 2725,
      "त्थं": 2726,
      "summ": 2727,
      "किन्त्व": 2728,
      "किञ्चित्": 2729,
      "विण्डो": 2730,
      "Check": 2731,
      ":/": 2732,
      "Jew": 2733,
      "Me": 2734,
      "Ste": 2735,
      "Where": 2736,
      "Yoga": 2737,
      "hum": 2738,
      "igh": 2739,
      "mal": 2740,
      "mask": 2741,
      "much": 2742,
      "person": 2743,
      "ron": 2744,
      "tings": 2745,
      "vas": 2746,
      "war": 2747,
      "अर्थ": 2748,
      "कौ": 2749,
      "कानां": 2750,
      "ट्र": 2751,
      "डै": 2752,
      "ण्य": 2753,
      "धे": 2754,
      "बृह": 2755,
      "यन्त": 2756,
      "रक्त": 2757,
      "शृ": 2758,
      "rel": 2759,
      "too": 2760,
      "म्मा": 2761,
      "िते": 2762,
      "ita": 2763,
      "स्तस्य": 2764,
      "द्वयं": 2765,
      "करने": 2766,
      "ताया": 2767,
      "युज्य": 2768,
      "vert": 2769,
      "plus": 2770,
      "पुष्": 2771,
      "soever": 2772,
      "angu": 2773,
      "ived": 2774,
      "sign": 2775,
      "गच्छन्तु": 2776,
      "श्री": 2777,
      "िकां": 2778,
      "post": 2779,
      "days": 2780,
      "विद्यते": 2781,
      "fully": 2782,
      "भविष्यद्वा": 2783,
      "दुः": 2784,
      "बहू": 2785,
      "methods": 2786,
      "contact": 2787,
      "धारिका": 2788,
      "समीपे": 2789,
      "Exce": 2790,
      "param": 2791,
      "नाम्ना": 2792,
      "नमस्": 2793,
      "अग्रिम": 2794,
      "TeX": 2795,
      "cument": 2796,
      "ब्रेकेट्": 2797,
      "browser": 2798,
      "Eclipse": 2799,
      "Gener": 2800,
      "RD": 2801,
      "Rama": 2802,
      "With": 2803,
      "cir": 2804,
      "gener": 2805,
      "little": 2806,
      "pi": 2807,
      "ry": 2808,
      "आका": 2809,
      "जु": 2810,
      "तन्त्र": 2811,
      "मयि": 2812,
      "यद्य": 2813,
      "षन्": 2814,
      "सञ्च": 2815,
      "ह्य": 2816,
      "ाय": 2817,
      "len": 2818,
      "semic": 2819,
      "प्रत्या": 2820,
      "क्टर्": 2821,
      "इत्यु": 2822,
      "olon": 2823,
      "दातुं": 2824,
      "peace": 2825,
      "fire": 2826,
      "चित्": 2827,
      "वेश": 2828,
      "कोपि": 2829,
      "front": 2830,
      "spirit": 2831,
      "cannot": 2832,
      "brother": 2833,
      "aves": 2834,
      "succ": 2835,
      "ending": 2836,
      "सम्बद्ध": 2837,
      "तीति": 2838,
      "वदामि": 2839,
      "eved": 2840,
      "website": 2841,
      "single": 2842,
      "support": 2843,
      "कानिचन": 2844,
      "उपयोगं": 2845,
      "certain": 2846,
      "कृपया": 2847,
      "परस्परं": 2848,
      "Krish": 2849,
      "स्टेट्मेण्ट्": 2850,
      "विश्राम": 2851,
      "Employee": 2852,
      "क्वेन्स्": 2853,
      "straight": 2854,
      "semicolon": 2855,
      "success": 2856,
      "Ag": 2857,
      "Bi": 2858,
      "Cour": 2859,
      "Cur": 2860,
      "Code": 2861,
      "Jer": 2862,
      "Open": 2863,
      "Pl": 2864,
      "Pre": 2865,
      "Text": 2866,
      "bed": 2867,
      "cat": 2868,
      "cles": 2869,
      "got": 2870,
      "ik": 2871,
      "jud": 2872,
      "nal": 2873,
      "ped": 2874,
      "इमे": 2875,
      "कल": 2876,
      "कमा": 2877,
      "ख्यां": 2878,
      "गौ": 2879,
      "टूल्": 2880,
      "धू": 2881,
      "पत्र": 2882,
      "यच्छ": 2883,
      "र्ष": 2884,
      "स्योपरि": 2885,
      "वार": 2886,
      "acter": 2887,
      "ayama": 2888,
      "white": 2889,
      "having": 2890,
      "पाप": 2891,
      "vers": 2892,
      "ture": 2893,
      "समय": 2894,
      "संस्": 2895,
      "urch": 2896,
      "constructor": 2897,
      "च्छा": 2898,
      "ष्यामि": 2899,
      "नोद": 2900,
      "शिष्य": 2901,
      "स्मः": 2902,
      "वृक्षा": 2903,
      "भूत्वा": 2904,
      "ान्तः": 2905,
      "मह्यं": 2906,
      "चित्रं": 2907,
      "भवेत": 2908,
      "शील": 2909,
      "प्राप्नो": 2910,
      "अग्रे": 2911,
      "भ्राम": 2912,
      "priest": 2913,
      "structure": 2914,
      "member": 2915,
      "Notice": 2916,
      "रखें": 2917,
      "Br": 2918,
      "Deta": 2919,
      "Fin": 2920,
      "HRD": 2921,
      "Mar": 2922,
      "MHRD": 2923,
      "Note": 2924,
      "Ob": 2925,
      "RL": 2926,
      "Sim": 2927,
      "Teach": 2928,
      "could": 2929,
      "email": 2930,
      "god": 2931,
      "met": 2932,
      "tp": 2933,
      "wom": 2934,
      "अं": 2935,
      "अन्ते": 2936,
      "आं": 2937,
      "आदि": 2938,
      "उपा": 2939,
      "जाना": 2940,
      "ड्रो": 2941,
      "धृ": 2942,
      "ध्वे": 2943,
      "पदा": 2944,
      "प्यते": 2945,
      "महे": 2946,
      "यर्": 2947,
      "रङ्ग": 2948,
      "लब्": 2949,
      "लघु": 2950,
      "सङ्क": 2951,
      "ीयं": 2952,
      "anel": 2953,
      "प्रकल्प": 2954,
      "ितानि": 2955,
      "करता": 2956,
      "करणं": 2957,
      "dead": 2958,
      "demo": 2959,
      "याज": 2960,
      "याम्": 2961,
      "unt": 2962,
      "क्षु": 2963,
      "ute": 2964,
      "ारी": 2965,
      "वेब्": 2966,
      "else": 2967,
      "संवाद": 2968,
      "कथितवान्": 2969,
      "aph": 2970,
      "types": 2971,
      "While": 2972,
      "सीक्वेन्स्": 2973,
      "प्राप्तवन्तः": 2974,
      "स्थापयेत": 2975,
      "earlier": 2976,
      "युक्तं": 2977,
      "प्रथमं": 2978,
      "विवरणानि": 2979,
      "fields": 2980,
      "यीशुः": 2981,
      "From": 2982,
      "कृतवन्तः": 2983,
      "नूतन": 2984,
      "द्वितीय": 2985,
      "taken": 2986,
      "http": 2987,
      "organis": 2988,
      "Display": 2989,
      "Windows": 2990,
      "://": 2991,
      "Numb": 2992,
      "cial": 2993,
      "coun": 2994,
      "den": 2995,
      "fac": 2996,
      "gum": 2997,
      "gave": 2998,
      "pu": 2999,
      "squ": 3000,
      "source": 3001,
      "whe": 3002,
      "अद्य": 3003,
      "इत्थं": 3004,
      "टन्": 3005,
      "णाम": 3006,
      "ध्या": 3007,
      "सृ": 3008,
      "input": 3009,
      "स्ट्": 3010,
      "sea": 3011,
      "seven": 3012,
      "स्यात्": 3013,
      "ितो": 3014,
      "itle": 3015,
      "नात्": 3016,
      "depart": 3017,
      "rid": 3018,
      "shows": 3019,
      "exce": 3020,
      "वेद": 3021,
      "प्राप्य": 3022,
      "ident": 3023,
      "truth": 3024,
      "तुम्": 3025,
      "साहाय": 3026,
      "ific": 3027,
      "रेख": 3028,
      "...": 3029,
      "लोक्य": 3030,
      "जावा": 3031,
      "ग्राम": 3032,
      "ज्ञानं": 3033,
      "feet": 3034,
      "न्यु": 3035,
      "द्यो": 3036,
      "clicking": 3037,
      "वयमत्र": 3038,
      "पिता": 3039,
      "गृही": 3040,
      "More": 3041,
      "लोकानां": 3042,
      "विकल्पः": 3043,
      "Arjun": 3044,
      "ators": 3045,
      "स्ट्रि": 3046,
      "copy": 3047,
      "भवद्भ्यः": 3048,
      "haling": 3049,
      "पवित्र": 3050,
      "Ke": 3051,
      "dir": 3052,
      "dark": 3053,
      "fri": 3054,
      "flo": 3055,
      "nthe": 3056,
      "scre": 3057,
      "ude": 3058,
      "yet": 3059,
      "अने": 3060,
      "अतो": 3061,
      "अङ्ग": 3062,
      "एं": 3063,
      "कति": 3064,
      "तन": 3065,
      "पत": 3066,
      "बै": 3067,
      "ल्यं": 3068,
      "सहाय": 3069,
      "िः": 3070,
      "ases": 3071,
      "विद्या": 3072,
      "कारि": 3073,
      "entered": 3074,
      "usale": 3075,
      "cts": 3076,
      "olog": 3077,
      "मेष": 3078,
      "prot": 3079,
      "लिए": 3080,
      "अध्या": 3081,
      "तथापि": 3082,
      "क्रमे": 3083,
      "राग": 3084,
      "लेन": 3085,
      "saved": 3086,
      "कर्तु": 3087,
      "ackage": 3088,
      "चित्रे": 3089,
      "कुर्व्व": 3090,
      "Tool": 3091,
      "column": 3092,
      "partic": 3093,
      "according": 3094,
      "ध्यान": 3095,
      "database": 3096,
      "visit": 3097,
      "lax": 3098,
      "glory": 3099,
      "परेटर्": 3100,
      "पर्यन्तं": 3101,
      "index": 3102,
      "GIMP": 3103,
      "Jerusale": 3104,
      "screen": 3105,
      "Jerusalem": 3106,
      "At": 3107,
      "Pat": 3108,
      "Sy": 3109,
      "base": 3110,
      "cu": 3111,
      "ian": 3112,
      "pur": 3113,
      "rot": 3114,
      "sun": 3115,
      "talk": 3116,
      "ख्य": 3117,
      "गर्": 3118,
      "नहि": 3119,
      "फोल्": 3120,
      "वद्": 3121,
      "relax": 3122,
      "र्घ": 3123,
      "touch": 3124,
      "orn": 3125,
      "seed": 3126,
      "वायु": 3127,
      "ितः": 3128,
      "behold": 3129,
      "श्मश": 3130,
      "death": 3131,
      "delete": 3132,
      "administr": 3133,
      "five": 3134,
      "वेष": 3135,
      "plac": 3136,
      "ण्टर्": 3137,
      "uring": 3138,
      "दृढ": 3139,
      "लोड्": 3140,
      "ग्री": 3141,
      "सर्व्वा": 3142,
      "year": 3143,
      "avig": 3144,
      "देशे": 3145,
      "ण्डी": 3146,
      "others": 3147,
      "वर्णं": 3148,
      "शाला": 3149,
      "ctions": 3150,
      "यूय": 3151,
      "टर्मि": 3152,
      "पितर": 3153,
      "cook": 3154,
      "श्वासं": 3155,
      "ension": 3156,
      "numbers": 3157,
      "प्रेर": 3158,
      "मेण्ट्स्": 3159,
      "username": 3160,
      "सम्यक्": 3161,
      "मनुष्य": 3162,
      "similar": 3163,
      "Desktop": 3164,
      "मर्ह": 3165,
      "fruit": 3166,
      "elements": 3167,
      "righteousness": 3168,
      "video": 3169,
      "मन्दि": 3170,
      "summari": 3171,
      "Jews": 3172,
      "कमाण्ड्": 3173,
      "Teacher": 3174,
      "friend": 3175,
      "),": 3176,
      "Bu": 3177,
      "His": 3178,
      "ION": 3179,
      "Nor": 3180,
      "Sur": 3181,
      "don": 3182,
      "mouth": 3183,
      "walk": 3184,
      "इमां": 3185,
      "उभ": 3186,
      "दर": 3187,
      "म्य": 3188,
      "मनो": 3189,
      "वह": 3190,
      "सदृश": 3191,
      "……": 3192,
      "inal": 3193,
      "inte": 3194,
      "र्ण": 3195,
      "oud": 3196,
      "alled": 3197,
      "प्रचार": 3198,
      "heal": 3199,
      "itial": 3200,
      "omet": 3201,
      "ilk": 3202,
      "ility": 3203,
      "below": 3204,
      "परमे": 3205,
      "न्तुं": 3206,
      "ribut": 3207,
      "chief": 3208,
      "short": 3209,
      "लिके": 3210,
      "प्राणा": 3211,
      "spake": 3212,
      "urn": 3213,
      "document": 3214,
      "यिरू": 3215,
      "चितं": 3216,
      "hast": 3217,
      "अस्माभि": 3218,
      "Which": 3219,
      "व्यम्": 3220,
      "item": 3221,
      "cometh": 3222,
      "तदनन्तरं": 3223,
      "सर्ग": 3224,
      "एवमेव": 3225,
      "षाम्": 3226,
      "evil": 3227,
      "उपयुञ्": 3228,
      "full": 3229,
      "पश्चाद्": 3230,
      "drag": 3231,
      "स्यास्य": 3232,
      "temple": 3233,
      "आगच्छन्तु": 3234,
      "ध्वं": 3235,
      "सम्यक": 3236,
      "visible": 3237,
      "appear": 3238,
      "position": 3239,
      "muscles": 3240,
      "छात्र": 3241,
      "Comp": 3242,
      "ferences": 3243,
      "यामास": 3244,
      "defined": 3245,
      "suffer": 3246,
      "Krishna": 3247,
      "Number": 3248,
      "AN": 3249,
      "Down": 3250,
      "Gr": 3251,
      "Net": 3252,
      "Run": 3253,
      "Un": 3254,
      "User": 3255,
      "fill": 3256,
      "gu": 3257,
      "ka": 3258,
      "langu": 3259,
      "mer": 3260,
      "pas": 3261,
      "ओर": 3262,
      "कण्डी": 3263,
      "तस्माद्": 3264,
      "धिक": 3265,
      "नौ": 3266,
      "फलं": 3267,
      "बं": 3268,
      "ब्रा": 3269,
      "बटन्": 3270,
      "भ्यं": 3271,
      "मान्": 3272,
      "यन": 3273,
      "लु": 3274,
      "शू": 3275,
      "सत": 3276,
      "सहा": 3277,
      "हित": 3278,
      "inue": 3279,
      "aning": 3280,
      "र्ट्": 3281,
      "ised": 3282,
      "level": 3283,
      "ितवन्तः": 3284,
      "विवृ": 3285,
      "विधि": 3286,
      "विभिन्न": 3287,
      "ste": 3288,
      "bel": 3289,
      "develop": 3290,
      "इत्यस्मिन्": 3291,
      "निक": 3292,
      "church": 3293,
      "ops": 3294,
      "living": 3295,
      "समं": 3296,
      "प्राण": 3297,
      "पुरा": 3298,
      "ides": 3299,
      "संगी": 3300,
      "cons": 3301,
      "राजा": 3302,
      "canvas": 3303,
      "श्चन": 3304,
      "लाग्": 3305,
      "भ्यां": 3306,
      "देशः": 3307,
      "रूपे": 3308,
      "sible": 3309,
      "cape": 3310,
      "एतत": 3311,
      "इदानीम्": 3312,
      "समीपं": 3313,
      "ched": 3314,
      "Therefore": 3315,
      "अपने": 3316,
      "इन्स्टा": 3317,
      "current": 3318,
      "डेटा": 3319,
      "joy": 3320,
      "filled": 3321,
      "कूर्च": 3322,
      "Paul": 3323,
      "animals": 3324,
      "Hello": 3325,
      "shalt": 3326,
      "Arjuna": 3327,
      "टर्मिनल्": 3328,
      "Download": 3329,
      "1st": 3330,
      "Av": 3331,
      "EN": 3332,
      "Jo": 3333,
      "KT": 3334,
      "Ma": 3335,
      "java": 3336,
      "land": 3337,
      "ss": 3338,
      "sur": 3339,
      "wer": 3340,
      "watch": 3341,
      "अक्ष": 3342,
      "अयं": 3343,
      "आत्": 3344,
      "उक्त": 3345,
      "एलि": 3346,
      "एतेषां": 3347,
      "छो": 3348,
      "जलं": 3349,
      "टु": 3350,
      "ट्या": 3351,
      "धन": 3352,
      "मति": 3353,
      "शारी": 3354,
      "हृ": 3355,
      "ोर्": 3356,
      "स्पे": 3357,
      "leaves": 3358,
      "around": 3359,
      "विविध": 3360,
      "तेभ्यः": 3361,
      "amount": 3362,
      "nder": 3363,
      "lose": 3364,
      "केचन": 3365,
      "त्वां": 3366,
      "साथ": 3367,
      "सेन": 3368,
      "उपलभ्य": 3369,
      "शिष्या": 3370,
      "doing": 3371,
      "पश्यति": 3372,
      "हाथ": 3373,
      "सम्पूर्ण": 3374,
      "दर्शितं": 3375,
      "greater": 3376,
      "सन्नि": 3377,
      "करणम्": 3378,
      "पूर्वं": 3379,
      "उद्घट": 3380,
      "कन्स्ट्र": 3381,
      "students": 3382,
      "000": 3383,
      "गुण": 3384,
      "tempt": 3385,
      "installed": 3386,
      "proper": 3387,
      "पुनर": 3388,
      "तिष्ठति": 3389,
      "ब्रौ": 3390,
      "possible": 3391,
      "जालपुट": 3392,
      "धीरे": 3393,
      "बीज": 3394,
      "फ़ैल्": 3395,
      "prophets": 3396,
      "flesh": 3397,
      "editor": 3398,
      "भविष्यद्वादि": 3399,
      "Details": 3400,
      "सङ्कल": 3401,
      "स्ट्रिङ्ग्": 3402,
      "Keep": 3403,
      "protect": 3404,
      "AS": 3405,
      "Am": 3406,
      "Fill": 3407,
      "No": 3408,
      "Per": 3409,
      "QL": 3410,
      "She": 3411,
      "SQL": 3412,
      "band": 3413,
      "cation": 3414,
      "clear": 3415,
      "fal": 3416,
      "ga": 3417,
      "iled": 3418,
      "mat": 3419,
      "num": 3420,
      "night": 3421,
      "sof": 3422,
      "ual": 3423,
      "अन्ति": 3424,
      "आस": 3425,
      "खि": 3426,
      "गवा": 3427,
      "चत्वा": 3428,
      "जनो": 3429,
      "टै": 3430,
      "तक": 3431,
      "ताम": 3432,
      "पन्": 3433,
      "पक्ष": 3434,
      "भक्ति": 3435,
      "वश्य": 3436,
      "्यानि": 3437,
      "anch": 3438,
      "reme": 3439,
      "ories": 3440,
      "प्रधान": 3441,
      "क्लो": 3442,
      "aster": 3443,
      "विश": 3444,
      "ilt": 3445,
      "beans": 3446,
      "भवितुं": 3447,
      "योह": 3448,
      "क्त्वा": 3449,
      "verse": 3450,
      "ष्टा": 3451,
      "पुटे": 3452,
      "tra": 3453,
      "mode": 3454,
      "moved": 3455,
      "पेटिका": 3456,
      "रिक": 3457,
      "रिक्त": 3458,
      "प्ले": 3459,
      "fection": 3460,
      "सिं": 3461,
      "कथ्यते": 3462,
      "typing": 3463,
      "श्रो": 3464,
      "सूक्ष्": 3465,
      "core": 3466,
      "चार्य": 3467,
      "फ़ील्ड्": 3468,
      "अवलोक": 3469,
      "Spirit": 3470,
      "Shift": 3471,
      "Indian": 3472,
      "simple": 3473,
      "कदापि": 3474,
      "medi": 3475,
      "music": 3476,
      "विषयान्": 3477,
      "अधिकं": 3478,
      "प्राप्नुमः": 3479,
      "निर्दिष्ट": 3480,
      "डोट्": 3481,
      "multiple": 3482,
      "पुरुष": 3483,
      "ङ्क्षन्": 3484,
      "आंख": 3485,
      "कन्स्ट्रक्टर्": 3486,
      "Bud": 3487,
      "Col": 3488,
      "ML": 3489,
      "Make": 3490,
      "PH": 3491,
      "care": 3492,
      "cap": 3493,
      "far": 3494,
      "free": 3495,
      "gen": 3496,
      "ged": 3497,
      "hn": 3498,
      "iqu": 3499,
      "lot": 3500,
      "mor": 3501,
      "milk": 3502,
      "pop": 3503,
      "sound": 3504,
      "tag": 3505,
      "tell": 3506,
      "vol": 3507,
      "wa": 3508,
      "आवृत्त": 3509,
      "आत्म": 3510,
      "च्यते": 3511,
      "पर्व": 3512,
      "बल": 3513,
      "शस्य": 3514,
      "सब्": 3515,
      "ऽहं": 3516,
      "ीटर्": 3517,
      "thr": 3518,
      "ins": 3519,
      "anas": 3520,
      "ref": 3521,
      "र्ड्": 3522,
      "ानन्तरं": 3523,
      "स्यति": 3524,
      "ofile": 3525,
      "कारं": 3526,
      "ached": 3527,
      "स्ता": 3528,
      "become": 3529,
      "becomes": 3530,
      "पर्या": 3531,
      "नार्थं": 3532,
      "यात्": 3533,
      "मेन्यु": 3534,
      "युः": 3535,
      "peat": 3536,
      "कृत्य": 3537,
      "केन्": 3538,
      "इतीमे": 3539,
      "क्रम": 3540,
      "सेस्": 3541,
      "सेना": 3542,
      "रेखा": 3543,
      "स्वच्छ": 3544,
      "णार्थम्": 3545,
      "कार्या": 3546,
      "पश्यन्ति": 3547,
      "मुद्र": 3548,
      "direct": 3549,
      "ists": 3550,
      "पाठा": 3551,
      "चेत": 3552,
      "चेतुं": 3553,
      "रोग": 3554,
      "वदति": 3555,
      "पृच्छ": 3556,
      "emp": 3557,
      "grep": 3558,
      "भागः": 3559,
      "100": 3560,
      "स्यापि": 3561,
      "पादप": 3562,
      "blue": 3563,
      "vious": 3564,
      "त्राणि": 3565,
      "रामीटर्": 3566,
      "न्यून": 3567,
      "मुख्य": 3568,
      "final": 3569,
      "believed": 3570,
      "names": 3571,
      "भारत": 3572,
      "लैन्": 3573,
      "interface": 3574,
      "शरीरस्य": 3575,
      "Serv": 3576,
      "भवद्भिः": 3577,
      "required": 3578,
      "troy": 3579,
      "साक्षात्": 3580,
      "happens": 3581,
      "अनुशिक्षणे": 3582,
      "औट्पुट्": 3583,
      "मुपयुज्य": 3584,
      "finger": 3585,
      "vided": 3586,
      "अधस्तन": 3587,
      "ड्रोप्": 3588,
      "',": 3589,
      "Bha": 3590,
      "Im": 3591,
      "Test": 3592,
      "fam": 3593,
      "gy": 3594,
      "kne": 3595,
      "ln": 3596,
      "mid": 3597,
      "slow": 3598,
      "stop": 3599,
      "vir": 3600,
      "अस्मिन": 3601,
      "ज़": 3602,
      "दान": 3603,
      "धं": 3604,
      "धन्य": 3605,
      "पट": 3606,
      "भर": 3607,
      "भवा": 3608,
      "मन्त्र": 3609,
      "यमेव": 3610,
      "लन्": 3611,
      "लक्ष": 3612,
      "वक्त": 3613,
      "resp": 3614,
      "प्रदर्श": 3615,
      "वास्": 3616,
      "iti": 3617,
      "माध्य": 3618,
      "ष्ट्": 3619,
      "eters": 3620,
      "comput": 3621,
      "Thou": 3622,
      "नेव": 3623,
      "लियों": 3624,
      "संधारिका": 3625,
      "ifest": 3626,
      "स्थं": 3627,
      "lessed": 3628,
      "नों": 3629,
      "माना": 3630,
      "manifest": 3631,
      "मुक्त": 3632,
      "ण्डे": 3633,
      "ives": 3634,
      "size": 3635,
      "roup": 3636,
      "तदानीं": 3637,
      "common": 3638,
      "द्वौ": 3639,
      "parts": 3640,
      "breath": 3641,
      "break": 3642,
      "ized": 3643,
      "See": 3644,
      "correct": 3645,
      "वानस्मि": 3646,
      "received": 3647,
      "syn": 3648,
      "भ्रातृ": 3649,
      "takes": 3650,
      "Order": 3651,
      "हुए": 3652,
      "इत्यस्याधः": 3653,
      "लूप्": 3654,
      "declared": 3655,
      "includ": 3656,
      "Blur": 3657,
      "circle": 3658,
      "Course": 3659,
      "square": 3660,
      "particular": 3661,
      "Come": 3662,
      "IN": 3663,
      "Item": 3664,
      "Path": 3665,
      "Peter": 3666,
      "Sum": 3667,
      "Some": 3668,
      "Yes": 3669,
      "count": 3670,
      "ff": 3671,
      "grade": 3672,
      "holy": 3673,
      "ious": 3674,
      "mar": 3675,
      "ru": 3676,
      "sis": 3677,
      "send": 3678,
      "tch": 3679,
      "till": 3680,
      "ually": 3681,
      "wid": 3682,
      "आदौ": 3683,
      "इमानि": 3684,
      "एतस्य": 3685,
      "छे": 3686,
      "जब": 3687,
      "तस्मै": 3688,
      "धौ": 3689,
      "फु": 3690,
      "रै": 3691,
      "रस्य": 3692,
      "लभ": 3693,
      "वता": 3694,
      "शः": 3695,
      "शक्ष्य": 3696,
      "शनै": 3697,
      "सस्": 3698,
      "िं": 3699,
      "ुमर्ह": 3700,
      "’.": 3701,
      "anayama": 3702,
      "स्वयं": 3703,
      "ati": 3704,
      "ative": 3705,
      "lest": 3706,
      "leave": 3707,
      "ors": 3708,
      "न्ता": 3709,
      "argum": 3710,
      "वादं": 3711,
      "ital": 3712,
      "stit": 3713,
      "स्तः": 3714,
      "स्तीति": 3715,
      "नासि": 3716,
      "करणे": 3717,
      "मिको": 3718,
      "मेन्": 3719,
      "illa": 3720,
      "दाय": 3721,
      "coming": 3722,
      "plic": 3723,
      "समान": 3724,
      "प्राची": 3725,
      "ज्ज": 3726,
      "ज्महे": 3727,
      "संसार": 3728,
      "तुल": 3729,
      "ife": 3730,
      "रेकोर्": 3731,
      "पेनल्": 3732,
      "जात": 3733,
      "Inks": 3734,
      "नुदामि": 3735,
      "भाषा": 3736,
      "sert": 3737,
      "सम्भवति": 3738,
      "says": 3739,
      "नामानि": 3740,
      "अस्या": 3741,
      "गृहे": 3742,
      "working": 3743,
      "जीवा": 3744,
      "लोकान्": 3745,
      "destroy": 3746,
      "grace": 3747,
      "previous": 3748,
      "blank": 3749,
      "पूर्णं": 3750,
      "root": 3751,
      "arrow": 3752,
      "क्षेत्र": 3753,
      "opened": 3754,
      "अर्जु": 3755,
      "व्यवस्थाप": 3756,
      "better": 3757,
      "croll": 3758,
      "एतेषु": 3759,
      "vision": 3760,
      "निर्माणं": 3761,
      "उपयोक्तुं": 3762,
      "पङ्क्ति": 3763,
      "आवश्यक": 3764,
      "पृथि": 3765,
      "parenthe": 3766,
      "यिहूदीय": 3767,
      "त्वेन": 3768,
      "दुःख": 3769,
      "प्राप्नोति": 3770,
      "country": 3771,
      "publ": 3772,
      "John": 3773,
      "ब्रौसर्": 3774,
      "ष्ट्वा": 3775,
      "Inkscape": 3776,
      "40": 3777,
      "ER": 3778,
      "Fe": 3779,
      "Gre": 3780,
      "IS": 3781,
      "Le": 3782,
      "Oper": 3783,
      "PA": 3784,
      "Under": 3785,
      "YY": 3786,
      "bread": 3787,
      "cow": 3788,
      "either": 3789,
      "gth": 3790,
      "ified": 3791,
      "krit": 3792,
      "mater": 3793,
      "ps": 3794,
      "pha": 3795,
      "title": 3796,
      "आराम": 3797,
      "उद्य": 3798,
      "छि": 3799,
      "जन्": 3800,
      "तरं": 3801,
      "तद्व": 3802,
      "दम्": 3803,
      "यै": 3804,
      "लस्य": 3805,
      "व्र": 3806,
      "हानि": 3807,
      "ीया": 3808,
      "thiti": 3809,
      "initial": 3810,
      "toes": 3811,
      "स्क्र": 3812,
      "ouch": 3813,
      "म्प्": 3814,
      "star": 3815,
      "ache": 3816,
      "acity": 3817,
      "भवतः": 3818,
      "rive": 3819,
      "ution": 3820,
      "shar": 3821,
      "admin": 3822,
      "किम": 3823,
      "comfor": 3824,
      "येत्": 3825,
      "कोऽपि": 3826,
      "समू": 3827,
      "क्रु": 3828,
      "ification": 3829,
      "पेरामीटर्": 3830,
      "Intro": 3831,
      "बाक्स्": 3832,
      "युष्मान": 3833,
      "स्ट्रे": 3834,
      "पाठस्य": 3835,
      "anskrit": 3836,
      "चेक्": 3837,
      "formed": 3838,
      "भूमि": 3839,
      "activ": 3840,
      "कर्म्मा": 3841,
      "टिङ्ग्": 3842,
      "डिक्ले": 3843,
      "प्रोजेक्ट्": 3844,
      "उपयुक्त": 3845,
      "उपयुज्यते": 3846,
      "मस्तिष्": 3847,
      "drink": 3848,
      "times": 3849,
      "content": 3850,
      "शीर्ष": 3851,
      "वस्त्रं": 3852,
      "दत्तवान्": 3853,
      "keys": 3854,
      "Demo": 3855,
      "सूची": 3856,
      "questions": 3857,
      "corner": 3858,
      "तरः": 3859,
      "build": 3860,
      "परीक्षा": 3861,
      "multit": 3862,
      "सैन्": 3863,
      "पैर": 3864,
      "complete": 3865,
      "Serial": 3866,
      "प्रयोगं": 3867,
      "करणीयम्": 3868,
      "प्रश्न": 3869,
      "fruits": 3870,
      "beginning": 3871,
      "पङ्क्तौ": 3872,
      "Sub": 3873,
      "www": 3874,
      "2017": 3875,
      "steps": 3876,
      "increase": 3877,
      "parameters": 3878,
      "नमस्कार": 3879,
      "Finish": 3880,
      "Observe": 3881,
      "जानाति": 3882,
      "until": 3883,
      "Syn": 3884,
      "प्राणायाम": 3885,
      "Netbeans": 3886,
      "इन्स्टाल्": 3887,
      "केन्वास्": 3888,
      "Close": 3889,
      "HT": 3890,
      "Pur": 3891,
      "Raj": 3892,
      "Say": 3893,
      "Use": 3894,
      "Ved": 3895,
      "Ye": 3896,
      "bird": 3897,
      "cpp": 3898,
      "du": 3899,
      "fast": 3900,
      "gard": 3901,
      "hour": 3902,
      "later": 3903,
      "sat": 3904,
      "अस्मि": 3905,
      "अन्तः": 3906,
      "अपेक्ष": 3907,
      "ऊर्": 3908,
      "एको": 3909,
      "पथ": 3910,
      "पत्त": 3911,
      "फे": 3912,
      "बना": 3913,
      "यान": 3914,
      "यानि": 3915,
      "हथे": 3916,
      "ोत्": 3917,
      "remove": 3918,
      "remember": 3919,
      "स्प": 3920,
      "स्ने": 3921,
      "स्लै": 3922,
      "ately": 3923,
      "always": 3924,
      "वाह": 3925,
      "िताः": 3926,
      "कालं": 3927,
      "ently": 3928,
      "ays": 3929,
      "यावत्": 3930,
      "ung": 3931,
      "निम्": 3932,
      "ets": 3933,
      "किया": 3934,
      "lock": 3935,
      "कृत्": 3936,
      "कृष्": 3937,
      "meaning": 3938,
      "प्राप्यते": 3939,
      "सेमिको": 3940,
      "स्वयमेव": 3941,
      "प्ल": 3942,
      "जाय": 3943,
      "त्यज": 3944,
      "making": 3945,
      "यिष्यति": 3946,
      "yourselves": 3947,
      "rah": 3948,
      "raise": 3949,
      "Why": 3950,
      "ज्ञातुं": 3951,
      "पाठं": 3952,
      "शास्त": 3953,
      "शुद्ध": 3954,
      "perfect": 3955,
      "्राये": 3956,
      "शक्नुम": 3957,
      "सारं": 3958,
      "descri": 3959,
      "प्रेम": 3960,
      "कम्पै": 3961,
      "black": 3962,
      "बोध": 3963,
      "courses": 3964,
      "keyboard": 3965,
      "सूचयति": 3966,
      "records": 3967,
      "witness": 3968,
      "मनुज": 3969,
      "statements": 3970,
      "complet": 3971,
      "script": 3972,
      "stood": 3973,
      "वृक्षस्य": 3974,
      "चिह्नं": 3975,
      "अन्तर्": 3976,
      "श्रुत्वा": 3977,
      "trees": 3978,
      "अतएव": 3979,
      "explain": 3980,
      "Breathing": 3981,
      "custom": 3982,
      "समर्प": 3983,
      "respective": 3984,
      "Again": 3985,
      "Marc": 3986,
      "पदार्थ": 3987,
      "लब्ध": 3988,
      "whether": 3989,
      "फोल्डर्": 3990,
      "summarize": 3991,
      "डिक्लेर्": 3992,
      "HTML": 3993,
      "सेमिकोलन्": 3994,
      "Bh": 3995,
      "Cal": 3996,
      "Page": 3997,
      "Phar": 3998,
      "Vi": 3999,
      "cows": 4000,
      "df": 4001,
      "gar": 4002,
      "gmail": 4003,
      "hard": 4004,
      "mouse": 4005,
      "occ": 4006,
      "wo": 4007,
      "wife": 4008,
      "yoga": 4009,
      "zilla": 4010,
      "अति": 4011,
      "असैन्": 4012,
      "आय": 4013,
      "गत": 4014,
      "जर्": 4015,
      "णम": 4016,
      "भं": 4017,
      "यज्ञ": 4018,
      "लौ": 4019,
      "वन": 4020,
      "ery": 4021,
      "स्वे": 4022,
      "atures": 4023,
      "eng": 4024,
      "arms": 4025,
      "प्रभ": 4026,
      "प्रती": 4027,
      "प्रमाण": 4028,
      "विनि": 4029,
      "तेषाम": 4030,
      "amb": 4031,
      "भवतु": 4032,
      "द्वय": 4033,
      "why": 4034,
      "यात": 4035,
      "निश्च": 4036,
      "मेन": 4037,
      "ट्स्": 4038,
      "युग": 4039,
      "library": 4040,
      "लिं": 4041,
      "लिका": 4042,
      "tract": 4043,
      "moving": 4044,
      "श्चा": 4045,
      "लेयर्": 4046,
      "प्स्": 4047,
      "जाती": 4048,
      "feed": 4049,
      "years": 4050,
      "शिय": 4051,
      "स्थापित": 4052,
      "देशस्य": 4053,
      "creation": 4054,
      "गच्छाम": 4055,
      "पाठस्यास्य": 4056,
      "श्रे": 4057,
      "answer": 4058,
      "peri": 4059,
      "विषयं": 4060,
      "proble": 4061,
      "Print": 4062,
      "र्यी": 4063,
      "टिक्": 4064,
      "atha": 4065,
      "एतस्मिन्": 4066,
      "युष्माभि": 4067,
      "युष्मासु": 4068,
      "युष्माभिः": 4069,
      "Move": 4070,
      "ानेन": 4071,
      "दीर्घ": 4072,
      "followed": 4073,
      "पादौ": 4074,
      "श्वसन": 4075,
      "tomatic": 4076,
      "settings": 4077,
      "सङ्ख्यां": 4078,
      "println": 4079,
      "Types": 4080,
      "उत्सर्ग": 4081,
      "वस्त्र": 4082,
      "compon": 4083,
      "compile": 4084,
      "shew": 4085,
      "गुरु": 4086,
      "प्रकारेण": 4087,
      "गीता": 4088,
      "बुक्": 4089,
      "आगत्य": 4090,
      "Manage": 4091,
      "Google": 4092,
      "functions": 4093,
      "practices": 4094,
      "हस्तौ": 4095,
      "कृतिं": 4096,
      "सर्वेषां": 4097,
      "centr": 4098,
      "members": 4099,
      "affection": 4100,
      "फिरू": 4101,
      "Stroke": 4102,
      "कृष्णः": 4103,
      "balance": 4104,
      "palms": 4105,
      "Checkout": 4106,
      "related": 4107,
      "vertical": 4108,
      "Excel": 4109,
      "General": 4110,
      "अध्याप": 4111,
      "लिकेशन्": 4112,
      "ब्राही": 4113,
      "गवाक्ष": 4114,
      "रेकोर्ड्": 4115,
      "स्क्रोल्": 4116,
      "Pharise": 4117,
      ">>": 4118,
      "Data": 4119,
      "Edi": 4120,
      "Files": 4121,
      "Math": 4122,
      "Ram": 4123,
      "Sthiti": 4124,
      "Your": 4125,
      "bt": 4126,
      "ben": 4127,
      "bow": 4128,
      "bond": 4129,
      "fell": 4130,
      "group": 4131,
      "mi": 4132,
      "pull": 4133,
      "panel": 4134,
      "song": 4135,
      "ught": 4136,
      "va": 4137,
      "अत्य": 4138,
      "इड": 4139,
      "इण्टर्": 4140,
      "उपरित": 4141,
      "काम": 4142,
      "गत्य": 4143,
      "जानु": 4144,
      "नही": 4145,
      "नवी": 4146,
      "नृत्य": 4147,
      "पश": 4148,
      "महि": 4149,
      "ल्या": 4150,
      "सत्": 4151,
      "सभी": 4152,
      "third": 4153,
      "anced": 4154,
      "्रि": 4155,
      "reas": 4156,
      "rection": 4157,
      "remain": 4158,
      "request": 4159,
      "refer": 4160,
      "once": 4161,
      "lecu": 4162,
      "align": 4163,
      "क्स": 4164,
      "वासि": 4165,
      "विन": 4166,
      "विस्त": 4167,
      "विश्वास": 4168,
      "stone": 4169,
      "इतो": 4170,
      "माणं": 4171,
      "amp": 4172,
      "bear": 4173,
      "परन्तु": 4174,
      "भवती": 4175,
      "करा": 4176,
      "ctr": 4177,
      "निर्व": 4178,
      "क्षम": 4179,
      "chari": 4180,
      "shops": 4181,
      "युवां": 4182,
      "परिष्": 4183,
      "परिशील": 4184,
      "चिनु": 4185,
      "plant": 4186,
      "प्राय": 4187,
      "दिव": 4188,
      "never": 4189,
      "संस्थाप": 4190,
      "दृशा": 4191,
      "साय": 4192,
      "क्रो": 4193,
      "राणां": 4194,
      "स्वं": 4195,
      "brah": 4196,
      "ession": 4197,
      "fear": 4198,
      "feel": 4199,
      "plet": 4200,
      "boy": 4201,
      "sugg": 4202,
      "rael": 4203,
      "अस्मासु": 4204,
      "एकः": 4205,
      "रों": 4206,
      "Pranayama": 4207,
      "aware": 4208,
      "green": 4209,
      "thought": 4210,
      "arya": 4211,
      "भविष्यन्ति": 4212,
      "गाढ": 4213,
      "पश्चा": 4214,
      "layers": 4215,
      "व्यायाम": 4216,
      "Admin": 4217,
      "मूल्यानि": 4218,
      "शरीरे": 4219,
      "printf": 4220,
      "भुज": 4221,
      "asked": 4222,
      "erties": 4223,
      "effect": 4224,
      "Stand": 4225,
      "वामतः": 4226,
      "laid": 4227,
      "समाप्त": 4228,
      "केवल": 4229,
      "running": 4230,
      "................": 4231,
      "पर्यन्त": 4232,
      "इत्यादि": 4233,
      "प्रत्येकं": 4234,
      "Descri": 4235,
      "क्रीड": 4236,
      "However": 4237,
      "उदाहरणार्थं": 4238,
      "कर्त्तुं": 4239,
      "Israel": 4240,
      "figure": 4241,
      "servants": 4242,
      "जलस्य": 4243,
      "ference": 4244,
      "सांस": 4245,
      "कश्चिद्": 4246,
      "एडिट्": 4247,
      "अधिकविवरणार्थं": 4248,
      "यीशुं": 4249,
      "Step": 4250,
      "successfully": 4251,
      "गौर": 4252,
      "ology": 4253,
      "administrator": 4254,
      "ometim": 4255,
      "उपयुञ्ज्महे": 4256,
      "language": 4257,
      "सूक्ष्म": 4258,
      "आंखों": 4259,
      "computer": 4260,
      "Calcul": 4261,
      "Editor": 4262,
      "नहीं": 4263,
      "suggest": 4264,
      "18": 4265,
      "Brah": 4266,
      "Home": 4267,
      "Maint": 4268,
      "Navig": 4269,
      "OPA": 4270,
      "Person": 4271,
      "Qu": 4272,
      "SP": 4273,
      "Sample": 4274,
      "URL": 4275,
      "bon": 4276,
      "cd": 4277,
      "fur": 4278,
      "jsp": 4279,
      "nut": 4280,
      "story": 4281,
      "tong": 4282,
      "vill": 4283,
      "wish": 4284,
      "अभवत्": 4285,
      "आद": 4286,
      "आक्": 4287,
      "इमं": 4288,
      "एक्लि": 4289,
      "गमि": 4290,
      "घो": 4291,
      "च्य": 4292,
      "जगा": 4293,
      "डबल्": 4294,
      "णीय": 4295,
      "तैः": 4296,
      "तयोः": 4297,
      "धानं": 4298,
      "धेन": 4299,
      "पह": 4300,
      "पत्रं": 4301,
      "रथ": 4302,
      "रह": 4303,
      "वस्य": 4304,
      "शां": 4305,
      "ेव": 4306,
      "thor": 4307,
      "thine": 4308,
      "thread": 4309,
      "ann": 4310,
      "erc": 4311,
      "orig": 4312,
      "arm": 4313,
      "प्रसार": 4314,
      "वात्": 4315,
      "ites": 4316,
      "ited": 4317,
      "विस्म": 4318,
      "विकल्": 4319,
      "मार": 4320,
      "माम्": 4321,
      "beg": 4322,
      "भवत्य": 4323,
      "rif": 4324,
      "दास": 4325,
      "comma": 4326,
      "कृता": 4327,
      "ceed": 4328,
      "ources": 4329,
      "दिश्य": 4330,
      "near": 4331,
      "kept": 4332,
      "दृष्ट्वा": 4333,
      "श्चर्य": 4334,
      "जाग": 4335,
      "few": 4336,
      "मानु": 4337,
      "शिमो": 4338,
      "कर्ता": 4339,
      "कारी": 4340,
      "कारस्य": 4341,
      "Web": 4342,
      "useful": 4343,
      "going": 4344,
      "दर्श्य": 4345,
      "यूयम्": 4346,
      "tware": 4347,
      "यत्किमपि": 4348,
      "Cho": 4349,
      "nostr": 4350,
      "Class": 4351,
      "पितु": 4352,
      "cale": 4353,
      "अस्यां": 4354,
      "टेबल्": 4355,
      "गृहं": 4356,
      "observe": 4357,
      "अन्ये": 4358,
      "रचयन्तु": 4359,
      "रचयितुं": 4360,
      "Mozilla": 4361,
      "दुग्": 4362,
      "changed": 4363,
      "spel": 4364,
      "speci": 4365,
      "ross": 4366,
      "opening": 4367,
      "\"\"\"": 4368,
      "itting": 4369,
      "clothe": 4370,
      "fund": 4371,
      "अपनी": 4372,
      "कृतवान": 4373,
      "everything": 4374,
      "Start": 4375,
      "दक्षिणपार्श्वे": 4376,
      "ध्वनि": 4377,
      "उत्तम": 4378,
      "यितु": 4379,
      "बुद्धि": 4380,
      "mbol": 4381,
      "पुत्रः": 4382,
      "rectangle": 4383,
      "automatic": 4384,
      "discus": 4385,
      "symbol": 4386,
      "categories": 4387,
      "normal": 4388,
      "फैर्": 4389,
      "tribut": 4390,
      "योजनम्": 4391,
      "फाक्स्": 4392,
      "पूर्व्वं": 4393,
      "आरभ": 4394,
      "कश्चित्": 4395,
      "ग्रन्थ": 4396,
      "बृहत्": 4397,
      "priests": 4398,
      "रङ्गसे": 4399,
      "floor": 4400,
      "Downloads": 4401,
      "ट्याब्": 4402,
      "शारीरिक": 4403,
      "Among": 4404,
      "false": 4405,
      "Budget": 4406,
      "नासिका": 4407,
      "public": 4408,
      "material": 4409,
      "garden": 4410,
      "श्रेष्ठ": 4411,
      "OPAC": 4412,
      ":-": 4413,
      "Abrah": 4414,
      "Back": 4415,
      "DNA": 4416,
      "List": 4417,
      "Res": 4418,
      "Rel": 4419,
      "Sin": 4420,
      "Switch": 4421,
      "TE": 4422,
      "Wr": 4423,
      "ai": 4424,
      "aus": 4425,
      "bh": 4426,
      "bin": 4427,
      "born": 4428,
      "cer": 4429,
      "dle": 4430,
      "ease": 4431,
      "fall": 4432,
      "gment": 4433,
      "hid": 4434,
      "host": 4435,
      "mag": 4436,
      "nment": 4437,
      "oom": 4438,
      "pic": 4439,
      "pent": 4440,
      "pli": 4441,
      "package": 4442,
      "ric": 4443,
      "sle": 4444,
      "tar": 4445,
      "tain": 4446,
      "ume": 4447,
      "wis": 4448,
      "ygen": 4449,
      "आर्": 4450,
      "आरो": 4451,
      "आवां": 4452,
      "उन्": 4453,
      "चनं": 4454,
      "टर": 4455,
      "डल्": 4456,
      "ड्रा": 4457,
      "णु": 4458,
      "प्या": 4459,
      "पशु": 4460,
      "फ्": 4461,
      "षे": 4462,
      "ष्ये": 4463,
      "ेत्": 4464,
      "्वि": 4465,
      "ths": 4466,
      "lev": 4467,
      "separ": 4468,
      "स्यामि": 4469,
      "asure": 4470,
      "विक्र": 4471,
      "भवता": 4472,
      "नाश": 4473,
      "नाया": 4474,
      "नापि": 4475,
      "करणाय": 4476,
      "entire": 4477,
      "demon": 4478,
      "ries": 4479,
      "utes": 4480,
      "युद्ध": 4481,
      "login": 4482,
      "exp": 4483,
      "समस्या": 4484,
      "प्राणि": 4485,
      "दिना": 4486,
      "पुर": 4487,
      "uru": 4488,
      "ष्यन्ते": 4489,
      "quiz": 4490,
      "पेटर्": 4491,
      "brings": 4492,
      "लोके": 4493,
      "Inst": 4494,
      "Insert": 4495,
      "्वं": 4496,
      "sake": 4497,
      "नुदामः": 4498,
      "nts": 4499,
      "ogen": 4500,
      "सिर": 4501,
      "teth": 4502,
      "णाम्": 4503,
      "कारक": 4504,
      "पश्यत": 4505,
      "gospel": 4506,
      "raised": 4507,
      "aria": 4508,
      "योगं": 4509,
      "गच्छामः": 4510,
      "एकस्य": 4511,
      "सम्बन्ध": 4512,
      "निर्मित": 4513,
      "तदनु": 4514,
      "तदर्थम्": 4515,
      "इत्येतं": 4516,
      "नील": 4517,
      "प्राप्तवान्": 4518,
      "यीशो": 4519,
      "सन्दर्": 4520,
      "पोष": 4521,
      "पोर्ट्": 4522,
      "अनुसर": 4523,
      "workshops": 4524,
      "योजयितुं": 4525,
      "firm": 4526,
      "contains": 4527,
      "Repeat": 4528,
      "preferences": 4529,
      "हों": 4530,
      "condu": 4531,
      "क्षेपेण": 4532,
      "सञ्चिकाः": 4533,
      "त्वया": 4534,
      "मृत्त": 4535,
      "न्यूनं": 4536,
      "harm": 4537,
      "Arr": 4538,
      "Behold": 4539,
      "जानाम": 4540,
      "glor": 4541,
      "लोकाः": 4542,
      "आवश्यकता": 4543,
      "ptions": 4544,
      "character": 4545,
      "स्थितौ": 4546,
      "भ्रातरः": 4547,
      "जनाः": 4548,
      "एषः": 4549,
      "द्वितीयं": 4550,
      "chap": 4551,
      "फैल्": 4552,
      "require": 4553,
      "Setup": 4554,
      "सेव्": 4555,
      "मन्यते": 4556,
      "सङ्गण": 4557,
      "एडिटर्": 4558,
      "विश्वसि": 4559,
      "oxygen": 4560,
      "Method": 4561,
      "डैलाग्": 4562,
      "यच्छति": 4563,
      "organisms": 4564,
      "departed": 4565,
      "विद्यार्थ": 4566,
      "Build": 4567,
      "परमेश्वर": 4568,
      "KTouch": 4569,
      "अवलोकयन्तु": 4570,
      "parentheses": 4571,
      "कर्म्माणि": 4572,
      "निम्न": 4573,
      "र्यीशु": 4574,
      "further": 4575,
      "Abraham": 4576,
      "Write": 4577,
      "ड्राप्": 4578,
      "05": 4579,
      "21": 4580,
      "25": 4581,
      "Email": 4582,
      "Gover": 4583,
      "Id": 4584,
      "JSP": 4585,
      "Lay": 4586,
      "Many": 4587,
      "MAR": 4588,
      "Pri": 4589,
      "Rot": 4590,
      "Sit": 4591,
      "Show": 4592,
      "Sanskrit": 4593,
      "Ter": 4594,
      "Us": 4595,
      "Ver": 4596,
      "bows": 4597,
      "during": 4598,
      "ech": 4599,
      "fine": 4600,
      "gedit": 4601,
      "hon": 4602,
      "ield": 4603,
      "ken": 4604,
      "lar": 4605,
      "ml": 4606,
      "ming": 4607,
      "mit": 4608,
      "mach": 4609,
      "nation": 4610,
      "phy": 4611,
      "pdf": 4612,
      "rise": 4613,
      "sort": 4614,
      "wine": 4615,
      "अर": 4616,
      "अग्": 4617,
      "आधार": 4618,
      "इब्राही": 4619,
      "उच्च": 4620,
      "ऊपर": 4621,
      "जै": 4622,
      "णः": 4623,
      "तू": 4624,
      "तान": 4625,
      "तदेव": 4626,
      "दन": 4627,
      "दन्त": 4628,
      "दानीं": 4629,
      "बार": 4630,
      "भक्ष": 4631,
      "यम": 4632,
      "यश्च": 4633,
      "लर्": 4634,
      "शौ": 4635,
      "सस्य": 4636,
      "सन्तु": 4637,
      "सपे": 4638,
      "ेत": 4639,
      "anam": 4640,
      "reve": 4641,
      "reach": 4642,
      "ises": 4643,
      "स्क्रि": 4644,
      "स्कन्": 4645,
      "alpha": 4646,
      "orrow": 4647,
      "प्रशिक्ष": 4648,
      "विधा": 4649,
      "विशिष्ट": 4650,
      "acters": 4651,
      "माता": 4652,
      "स्तम्": 4653,
      "भवताम्": 4654,
      "श्लोक": 4655,
      "uses": 4656,
      "याति": 4657,
      "otion": 4658,
      "मिच्छ": 4659,
      "chn": 4660,
      "cher": 4661,
      "areth": 4662,
      "adro": 4663,
      "loved": 4664,
      "fix": 4665,
      "ारं": 4666,
      "cept": 4667,
      "cell": 4668,
      "कुछ": 4669,
      "नेषु": 4670,
      "साव": 4671,
      "राष्ट": 4672,
      "राज्य": 4673,
      "molecu": 4674,
      "tories": 4675,
      "इत्यस्यान्तः": 4676,
      "soil": 4677,
      "ष्यामः": 4678,
      "लें": 4679,
      "भिन्": 4680,
      "लोकं": 4681,
      "foot": 4682,
      "features": 4683,
      "हिए": 4684,
      "themselves": 4685,
      "ogadro": 4686,
      "णाः": 4687,
      "manner": 4688,
      "mak": 4689,
      "angel": 4690,
      "तव्यम्": 4691,
      "dio": 4692,
      "देशीय": 4693,
      "arian": 4694,
      "sian": 4695,
      "sight": 4696,
      "series": 4697,
      "क्रियं": 4698,
      "क्रियां": 4699,
      "strong": 4700,
      "पाठनि": 4701,
      "सम्पाद": 4702,
      "यूसर्": 4703,
      "forms": 4704,
      "तदु": 4705,
      "proceed": 4706,
      "्राणि": 4707,
      "Profile": 4708,
      "मूडल्": 4709,
      "अस्याः": 4710,
      "यथार्थ": 4711,
      "भागं": 4712,
      "अनन्त": 4713,
      "फ़े": 4714,
      "सर्व्वं": 4715,
      "grow": 4716,
      "grad": 4717,
      "दृश्यन्ते": 4718,
      "सोऽ": 4719,
      "कम्प": 4720,
      "समीची": 4721,
      "cloth": 4722,
      "cient": 4723,
      "testdir": 4724,
      "प्राप्स्य": 4725,
      "व्यवस्थ": 4726,
      "curly": 4727,
      "cursor": 4728,
      "पार्श्व": 4729,
      "assigned": 4730,
      "joint": 4731,
      "जालपुटे": 4732,
      "devote": 4733,
      "author": 4734,
      "sins": 4735,
      "लम्ब": 4736,
      "इस्राये": 4737,
      "पुटस्य": 4738,
      "नगरं": 4739,
      "पृथ्व": 4740,
      "परित्रा": 4741,
      "chase": 4742,
      "operators": 4743,
      "कुरुत": 4744,
      "MySQL": 4745,
      "प्रश्ना": 4746,
      "certific": 4747,
      "सन्तान": 4748,
      "Apache": 4749,
      "धर्म्म": 4750,
      "बेस्": 4751,
      "Suk": 4752,
      "चयनं": 4753,
      "mountain": 4754,
      "Content": 4755,
      "indicates": 4756,
      "चतुर्": 4757,
      "स्वरूप": 4758,
      "controls": 4759,
      "aturation": 4760,
      "Wherefore": 4761,
      "इत्युक्ते": 4762,
      "गृहीत्वा": 4763,
      "based": 4764,
      "integer": 4765,
      "यिरूशाल": 4766,
      "Company": 4767,
      "कण्डीशन्": 4768,
      "सत्यं": 4769,
      "जालपुटं": 4770,
      "आवृत्तिः": 4771,
      "ज़्": 4772,
      "फिरूशि": 4773,
      "Maths": 4774,
      "उपरितन": 4775,
      "ometimes": 4776,
      "एक्लिप्स्": 4777,
      "nostril": 4778,
      "Government": 4779,
      "MARC": 4780,
      "\"•": 4781,
      "200": 4782,
      "80": 4783,
      "Brow": 4784,
      "Dat": 4785,
      "Every": 4786,
      "Fo": 4787,
      "Fol": 4788,
      "King": 4789,
      "Line": 4790,
      "Mis": 4791,
      "Post": 4792,
      "Red": 4793,
      "Sun": 4794,
      "TION": 4795,
      "Wor": 4796,
      "ber": 4797,
      "bri": 4798,
      "bur": 4799,
      "big": 4800,
      "cil": 4801,
      "fic": 4802,
      "ging": 4803,
      "ias": 4804,
      "ied": 4805,
      "kil": 4806,
      "kill": 4807,
      "lord": 4808,
      "nu": 4809,
      "ners": 4810,
      "sen": 4811,
      "sou": 4812,
      "sac": 4813,
      "sens": 4814,
      "sought": 4815,
      "tle": 4816,
      "अङ्क": 4817,
      "इनि": 4818,
      "कण्": 4819,
      "कस्मिन्": 4820,
      "गं": 4821,
      "गया": 4822,
      "गता": 4823,
      "चो": 4824,
      "तमा": 4825,
      "तस्मा": 4826,
      "ध्": 4827,
      "पान": 4828,
      "पन्न": 4829,
      "बन": 4830,
      "म्या": 4831,
      "मण्ड": 4832,
      "शक्य": 4833,
      "शान्ति": 4834,
      "षं": 4835,
      "सज्": 4836,
      "्यू": 4837,
      "र्न": 4838,
      "lead": 4839,
      "setu": 4840,
      "प्रच्छ": 4841,
      "प्रणा": 4842,
      "प्रयत्": 4843,
      "प्रमुख": 4844,
      "ित्य": 4845,
      "ितुम्": 4846,
      "ितवन्त": 4847,
      "iter": 4848,
      "विहाय": 4849,
      "विन्या": 4850,
      "stat": 4851,
      "स्तत्": 4852,
      "स्तरे": 4853,
      "स्तरं": 4854,
      "beings": 4855,
      "परम्": 4856,
      "dem": 4857,
      "uni": 4858,
      "images": 4859,
      "wel": 4860,
      "youn": 4861,
      "chest": 4862,
      "तावत्": 4863,
      "पाषा": 4864,
      "sho": 4865,
      "abdom": 4866,
      "दायू": 4867,
      "कृतम्": 4868,
      "exist": 4869,
      "ational": 4870,
      "प्राक्": 4871,
      "दिनं": 4872,
      "trust": 4873,
      "trodu": 4874,
      "frame": 4875,
      "स्माभिः": 4876,
      "वर्तमान": 4877,
      "पेट": 4878,
      "पेज्": 4879,
      "Intern": 4880,
      "सर्वर्": 4881,
      "न्यङ्क": 4882,
      "techn": 4883,
      "कथम्": 4884,
      "google": 4885,
      "स्मान्": 4886,
      "diers": 4887,
      "divided": 4888,
      "अत्रा": 4889,
      "वर्णि": 4890,
      "lower": 4891,
      "ज्ञात्वा": 4892,
      "चेष्ट": 4893,
      "सीव": 4894,
      "वृद्धि": 4895,
      "इदम": 4896,
      "वदस्ति": 4897,
      "cover": 4898,
      "एवम्": 4899,
      "र्यु": 4900,
      "परिवर्त्य": 4901,
      "परिवर्तनं": 4902,
      "rency": 4903,
      "बालकः": 4904,
      "ह्म": 4905,
      "spec": 4906,
      "graph": 4907,
      "contribut": 4908,
      "Read": 4909,
      "cried": 4910,
      "preached": 4911,
      "boxes": 4912,
      "चाहिए": 4913,
      "room": 4914,
      "दूर": 4915,
      "दूरी": 4916,
      "arry": 4917,
      "विवरणं": 4918,
      "यीशुर": 4919,
      "सरल": 4920,
      "त्वम्": 4921,
      "मृत्य": 4922,
      "इन्पुट्": 4923,
      "ध्वन्यङ्क": 4924,
      "निर्मातुं": 4925,
      "atics": 4926,
      "पुत्रं": 4927,
      "glish": 4928,
      "built": 4929,
      "books": 4930,
      "सैट्": 4931,
      "तृतीय": 4932,
      "doubt": 4933,
      "बहिः": 4934,
      "scrip": 4935,
      "Server": 4936,
      "कुर्यात्": 4937,
      "Super": 4938,
      "प्रत्येक": 4939,
      "colours": 4940,
      "Also": 4941,
      "प्रिण्ट्": 4942,
      "slide": 4943,
      "servant": 4944,
      "समुद्र": 4945,
      "sky": 4946,
      "कार्ड्": 4947,
      "kindness": 4948,
      "human": 4949,
      "pix": 4950,
      "इमेज्": 4951,
      "woman": 4952,
      "संवादपेटिका": 4953,
      "क्रमेण": 4954,
      "Patron": 4955,
      "walked": 4956,
      "अक्षराणि": 4957,
      "स्पेस्": 4958,
      "उद्घट्यते": 4959,
      "टैप्": 4960,
      "प्रधानयाज": 4961,
      "empty": 4962,
      "भारतसर्व": 4963,
      "Bhag": 4964,
      "arguments": 4965,
      "कम्पैल्": 4966,
      "components": 4967,
      "Pharisees": 4968,
      "benef": 4969,
      "Calculus": 4970,
      "जगाद": 4971,
      "जागरू": 4972,
      "दर्श्यते": 4973,
      "demonstr": 4974,
      "स्क्रिप्": 4975,
      "certificates": 4976,
      "AW": 4977,
      "DB": 4978,
      "Dav": 4979,
      "Dep": 4980,
      "EST": 4981,
      "GB": 4982,
      "Ger": 4983,
      "Get": 4984,
      "Gaus": 4985,
      "Jour": 4986,
      "Message": 4987,
      "Mik": 4988,
      "Maria": 4989,
      "Pe": 4990,
      "Take": 4991,
      "Tax": 4992,
      "ges": 4993,
      "gri": 4994,
      "grid": 4995,
      "ifi": 4996,
      "mine": 4997,
      "ptor": 4998,
      "sana": 4999
    },
    "merges": [
      [
        "t",
        "h"
      ],
      [
        "्",
        "य"
      ],
      [
        "th",
        "e"
      ],
      [
        "i",
        "n"
      ],
      [
        "्",
        "त"
      ],
      [
        "a",
        "n"
      ],
      [
        "्",
        "र"
      ],
      [
        "r",
        "e"
      ],
      [
        "o",
        "n"
      ],
      [
        "e",
        "r"
      ],
      [
        "र",
        "्"
      ],
      [
        "i",
        "s"
      ],
      [
        "t",
        "o"
      ],
      [
        "ा",
        "न"
      ],
      [
        "स",
        "्"
      ],
      [
        "a",
        "t"
      ],
      [
        "l",
        "e"
      ],
      [
        "e",
        "n"
      ],
      [
        "o",
        "u"
      ],
      [
        "त",
        "ि"
      ],
      [
        "an",
        "d"
      ],
      [
        "a",
        "l"
      ],
      [
        "o",
        "r"
      ],
      [
        "न",
        "्त"
      ],
      [
        "त",
        "्"
      ],
      [
        "e",
        "s"
      ],
      [
        "म",
        "्"
      ],
      [
        "s",
        "e"
      ],
      [
        "a",
        "r"
      ],
      [
        "प",
        "्र"
      ],
      [
        "स",
        "्य"
      ],
      [
        "in",
        "g"
      ],
      [
        "o",
        "f"
      ],
      [
        "क",
        "्"
      ],
      [
        "a",
        "s"
      ],
      [
        "व",
        "ा"
      ],
      [
        "h",
        "e"
      ],
      [
        "ि",
        "त"
      ],
      [
        "i",
        "t"
      ],
      [
        "न",
        "्"
      ],
      [
        "e",
        "d"
      ],
      [
        "o",
        "w"
      ],
      [
        "i",
        "c"
      ],
      [
        "व",
        "ि"
      ],
      [
        "ा",
        "ं"
      ],
      [
        "o",
        "m"
      ],
      [
        "त",
        "े"
      ],
      [
        "s",
        "t"
      ],
      [
        "इ",
        "त"
      ],
      [
        "ा",
        "म"
      ],
      [
        "i",
        "l"
      ],
      [
        "i",
        "on"
      ],
      [
        "क",
        "ा"
      ],
      [
        "a",
        "c"
      ],
      [
        "v",
        "e"
      ],
      [
        "म",
        "ा"
      ],
      [
        "स",
        "्त"
      ],
      [
        "ष",
        "्"
      ],
      [
        "a",
        "m"
      ],
      [
        "b",
        "e"
      ],
      [
        "प",
        "र"
      ],
      [
        "भ",
        "व"
      ],
      [
        "द",
        "्"
      ],
      [
        "न",
        "ा"
      ],
      [
        "क",
        "र"
      ],
      [
        ".",
        "\""
      ],
      [
        "en",
        "t"
      ],
      [
        "श",
        "्"
      ],
      [
        "a",
        "y"
      ],
      [
        "w",
        "h"
      ],
      [
        "न्त",
        "ु"
      ],
      [
        "u",
        "s"
      ],
      [
        "d",
        "e"
      ],
      [
        "थ",
        "ा"
      ],
      [
        "य",
        "ा"
      ],
      [
        "h",
        "a"
      ],
      [
        "o",
        "t"
      ],
      [
        "r",
        "i"
      ],
      [
        "त",
        "्र"
      ],
      [
        "c",
        "t"
      ],
      [
        "इत",
        "्य"
      ],
      [
        "u",
        "n"
      ],
      [
        "प",
        "ि"
      ],
      [
        "न",
        "ि"
      ],
      [
        "क्",
        "ष"
      ],
      [
        "f",
        "or"
      ],
      [
        "i",
        "m"
      ],
      [
        "w",
        "e"
      ],
      [
        "e",
        "t"
      ],
      [
        "th",
        "at"
      ],
      [
        "म",
        "ि"
      ],
      [
        "al",
        "l"
      ],
      [
        "ान",
        "्"
      ],
      [
        "o",
        "l"
      ],
      [
        "न",
        "ु"
      ],
      [
        "y",
        "ou"
      ],
      [
        "व",
        "र"
      ],
      [
        "o",
        "d"
      ],
      [
        "c",
        "h"
      ],
      [
        "a",
        "re"
      ],
      [
        "u",
        "t"
      ],
      [
        "य",
        "ं"
      ],
      [
        "इ",
        "ति"
      ],
      [
        "्य",
        "ा"
      ],
      [
        "त",
        "ा"
      ],
      [
        "ल",
        "्"
      ],
      [
        "ङ",
        "्"
      ],
      [
        "म",
        "े"
      ],
      [
        "य",
        "ो"
      ],
      [
        "a",
        "g"
      ],
      [
        "n",
        "d"
      ],
      [
        "ु",
        "ं"
      ],
      [
        "ट",
        "्"
      ],
      [
        "प",
        "ा"
      ],
      [
        "र्",
        "व"
      ],
      [
        "i",
        "th"
      ],
      [
        "s",
        "h"
      ],
      [
        "o",
        "p"
      ],
      [
        "il",
        "l"
      ],
      [
        "ान",
        "ि"
      ],
      [
        "a",
        "d"
      ],
      [
        "th",
        "is"
      ],
      [
        "p",
        "r"
      ],
      [
        "क",
        "ि"
      ],
      [
        "a",
        "b"
      ],
      [
        "द",
        "ं"
      ],
      [
        "य",
        "ु"
      ],
      [
        "्य",
        "े"
      ],
      [
        "द",
        "ा"
      ],
      [
        "p",
        "e"
      ],
      [
        "l",
        "o"
      ],
      [
        "c",
        "om"
      ],
      [
        "t",
        "er"
      ],
      [
        "g",
        "h"
      ],
      [
        "न्त",
        "ि"
      ],
      [
        "क",
        "्त"
      ],
      [
        "f",
        "i"
      ],
      [
        "क",
        "ं"
      ],
      [
        "पर",
        "ि"
      ],
      [
        "w",
        "ith"
      ],
      [
        "क",
        "ृ"
      ],
      [
        "ञ",
        "्"
      ],
      [
        "क",
        "े"
      ],
      [
        "l",
        "i"
      ],
      [
        "e",
        "x"
      ],
      [
        "ा",
        "र"
      ],
      [
        "म",
        "ध"
      ],
      [
        "च",
        "ि"
      ],
      [
        "w",
        "ill"
      ],
      [
        "T",
        "he"
      ],
      [
        "v",
        "er"
      ],
      [
        "स्त",
        "ि"
      ],
      [
        "t",
        "u"
      ],
      [
        "c",
        "e"
      ],
      [
        "ष्",
        "ट"
      ],
      [
        "श",
        "्य"
      ],
      [
        "त्",
        "वा"
      ],
      [
        "T",
        "h"
      ],
      [
        "n",
        "ot"
      ],
      [
        "व",
        "े"
      ],
      [
        "क",
        "ु"
      ],
      [
        "p",
        "l"
      ],
      [
        "न",
        "े"
      ],
      [
        "ou",
        "r"
      ],
      [
        "य",
        "े"
      ],
      [
        "क",
        "ो"
      ],
      [
        "इत",
        "ी"
      ],
      [
        "ल",
        "ि"
      ],
      [
        "e",
        "l"
      ],
      [
        "u",
        "l"
      ],
      [
        "।",
        "\""
      ],
      [
        "च",
        "्"
      ],
      [
        "the",
        "r"
      ],
      [
        "ण",
        "्"
      ],
      [
        "at",
        "ion"
      ],
      [
        "अ",
        "ध"
      ],
      [
        "स",
        "म"
      ],
      [
        "m",
        "e"
      ],
      [
        "o",
        "k"
      ],
      [
        "A",
        "nd"
      ],
      [
        "प्र",
        "ा"
      ],
      [
        "द",
        "ि"
      ],
      [
        "त",
        "था"
      ],
      [
        "ha",
        "ve"
      ],
      [
        "त",
        "ः"
      ],
      [
        "प",
        "ु"
      ],
      [
        "व",
        "यं"
      ],
      [
        "ज",
        "्"
      ],
      [
        "am",
        "e"
      ],
      [
        "i",
        "d"
      ],
      [
        "a",
        "in"
      ],
      [
        "मध",
        "्ये"
      ],
      [
        "i",
        "r"
      ],
      [
        "t",
        "r"
      ],
      [
        "f",
        "r"
      ],
      [
        "स्",
        "मा"
      ],
      [
        "n",
        "e"
      ],
      [
        "gh",
        "t"
      ],
      [
        "स",
        "ं"
      ],
      [
        "k",
        "e"
      ],
      [
        "u",
        "m"
      ],
      [
        "त",
        "ु"
      ],
      [
        "न",
        "ं"
      ],
      [
        "c",
        "l"
      ],
      [
        "at",
        "e"
      ],
      [
        "s",
        "p"
      ],
      [
        "u",
        "r"
      ],
      [
        "c",
        "on"
      ],
      [
        "द",
        "ृ"
      ],
      [
        "स",
        "ा"
      ],
      [
        "ic",
        "k"
      ],
      [
        "क",
        "्र"
      ],
      [
        "र",
        "ा"
      ],
      [
        "c",
        "an"
      ],
      [
        "वर",
        "्त"
      ],
      [
        "द",
        "े"
      ],
      [
        "र्",
        "थ"
      ],
      [
        "ह",
        "ं"
      ],
      [
        "i",
        "f"
      ],
      [
        "स्",
        "थ"
      ],
      [
        "or",
        "d"
      ],
      [
        "le",
        "s"
      ],
      [
        "च्",
        "छ"
      ],
      [
        "ou",
        "t"
      ],
      [
        "m",
        "o"
      ],
      [
        "re",
        "s"
      ],
      [
        "to",
        "ri"
      ],
      [
        "इत्य",
        "स्य"
      ],
      [
        "अ",
        "पि"
      ],
      [
        "s",
        "o"
      ],
      [
        "h",
        "im"
      ],
      [
        "ष",
        "्य"
      ],
      [
        "स",
        "े"
      ],
      [
        "q",
        "u"
      ],
      [
        "ag",
        "e"
      ],
      [
        "tori",
        "al"
      ],
      [
        "on",
        "e"
      ],
      [
        "ड",
        "्"
      ],
      [
        "श्",
        "च"
      ],
      [
        "ल",
        "े"
      ],
      [
        "b",
        "y"
      ],
      [
        "उ",
        "प"
      ],
      [
        "्य",
        "ं"
      ],
      [
        "र",
        "े"
      ],
      [
        "स्",
        "व"
      ],
      [
        "ic",
        "h"
      ],
      [
        "m",
        "ent"
      ],
      [
        "प",
        "े"
      ],
      [
        "भ",
        "ि"
      ],
      [
        "र",
        "ि"
      ],
      [
        "u",
        "p"
      ],
      [
        "प",
        "्"
      ],
      [
        "er",
        "s"
      ],
      [
        "b",
        "r"
      ],
      [
        ".",
        "."
      ],
      [
        "ल",
        "ो"
      ],
      [
        "इती",
        "दं"
      ],
      [
        "fr",
        "om"
      ],
      [
        "न",
        "ो"
      ],
      [
        "es",
        "s"
      ],
      [
        "es",
        "t"
      ],
      [
        "ज",
        "ा"
      ],
      [
        "un",
        "to"
      ],
      [
        "I",
        "n"
      ],
      [
        "त",
        "त्"
      ],
      [
        "f",
        "o"
      ],
      [
        "ग",
        "्र"
      ],
      [
        "भव",
        "ति"
      ],
      [
        "्",
        "व"
      ],
      [
        "l",
        "y"
      ],
      [
        "ज्",
        "ञ"
      ],
      [
        "s",
        "a"
      ],
      [
        "स्",
        "मि"
      ],
      [
        "f",
        "e"
      ],
      [
        "स",
        "र्व"
      ],
      [
        "ac",
        "e"
      ],
      [
        "wh",
        "ich"
      ],
      [
        "नु",
        "द"
      ],
      [
        "n",
        "t"
      ],
      [
        "ी",
        "य"
      ],
      [
        "ल",
        "ा"
      ],
      [
        "ह",
        "ि"
      ],
      [
        "the",
        "m"
      ],
      [
        "ञ्",
        "च"
      ],
      [
        "त",
        "्त"
      ],
      [
        "o",
        "g"
      ],
      [
        "कर",
        "ो"
      ],
      [
        "र",
        "ं"
      ],
      [
        "y",
        "e"
      ],
      [
        "भ",
        "ा"
      ],
      [
        "स",
        "ि"
      ],
      [
        "न",
        "्य"
      ],
      [
        "n",
        "ow"
      ],
      [
        "य",
        "ाम"
      ],
      [
        "t",
        "e"
      ],
      [
        "त",
        "्य"
      ],
      [
        "म",
        "ान"
      ],
      [
        "ण",
        "ा"
      ],
      [
        "m",
        "an"
      ],
      [
        "श",
        "ि"
      ],
      [
        "se",
        "e"
      ],
      [
        "d",
        "o"
      ],
      [
        "क",
        "थ"
      ],
      [
        "त",
        "स्य"
      ],
      [
        "m",
        "a"
      ],
      [
        "कर",
        "्त"
      ],
      [
        "द",
        "्य"
      ],
      [
        "द",
        "्र"
      ],
      [
        "का",
        "र"
      ],
      [
        "a",
        "v"
      ],
      [
        "W",
        "e"
      ],
      [
        "u",
        "se"
      ],
      [
        "tu",
        "torial"
      ],
      [
        "an",
        "g"
      ],
      [
        "भ",
        "्य"
      ],
      [
        "a",
        "p"
      ],
      [
        "प्र",
        "ति"
      ],
      [
        "प",
        "ू"
      ],
      [
        "in",
        "d"
      ],
      [
        "b",
        "ut"
      ],
      [
        "he",
        "re"
      ],
      [
        "ु",
        "ना"
      ],
      [
        "ङ्",
        "क"
      ],
      [
        "प",
        "श्य"
      ],
      [
        "p",
        "le"
      ],
      [
        "as",
        "s"
      ],
      [
        "b",
        "o"
      ],
      [
        "l",
        "d"
      ],
      [
        "t",
        "y"
      ],
      [
        "म",
        "ु"
      ],
      [
        "य",
        "ति"
      ],
      [
        "g",
        "o"
      ],
      [
        "d",
        "is"
      ],
      [
        "स्",
        "म"
      ],
      [
        "द्",
        "ध"
      ],
      [
        "ब",
        "ा"
      ],
      [
        "य",
        "ि"
      ],
      [
        "an",
        "t"
      ],
      [
        "न्त",
        "ः"
      ],
      [
        "le",
        "ct"
      ],
      [
        "the",
        "y"
      ],
      [
        "अ",
        "स्ति"
      ],
      [
        "त",
        "ो"
      ],
      [
        "ष",
        "ु"
      ],
      [
        "ह",
        "े"
      ],
      [
        "ow",
        "n"
      ],
      [
        "त",
        "व"
      ],
      [
        "ar",
        "t"
      ],
      [
        "त",
        "ं"
      ],
      [
        "ान",
        "ां"
      ],
      [
        "N",
        "ow"
      ],
      [
        "in",
        "e"
      ],
      [
        "ac",
        "k"
      ],
      [
        "ण",
        "ं"
      ],
      [
        "wh",
        "o"
      ],
      [
        "क",
        "ी"
      ],
      [
        "श",
        "क्"
      ],
      [
        "च",
        "ित"
      ],
      [
        "to",
        "r"
      ],
      [
        "you",
        "r"
      ],
      [
        "le",
        "d"
      ],
      [
        "d",
        "i"
      ],
      [
        "ब",
        "्"
      ],
      [
        "अ",
        "त्र"
      ],
      [
        "व",
        "ं"
      ],
      [
        "w",
        "as"
      ],
      [
        "s",
        "u"
      ],
      [
        "प",
        "्त"
      ],
      [
        "स्",
        "था"
      ],
      [
        "h",
        "is"
      ],
      [
        "नुद",
        "न्तु"
      ],
      [
        "r",
        "a"
      ],
      [
        "th",
        "ing"
      ],
      [
        "स्मि",
        "न्"
      ],
      [
        "म",
        "ः"
      ],
      [
        "स",
        "ु"
      ],
      [
        "h",
        "as"
      ],
      [
        "t",
        "ion"
      ],
      [
        "the",
        "re"
      ],
      [
        "ex",
        "t"
      ],
      [
        "अ",
        "स्मा"
      ],
      [
        "ज",
        "न"
      ],
      [
        "द",
        "र्"
      ],
      [
        "ab",
        "le"
      ],
      [
        "cl",
        "ick"
      ],
      [
        "a",
        "se"
      ],
      [
        "Th",
        "is"
      ],
      [
        "दे",
        "श"
      ],
      [
        "यु",
        "ष्"
      ],
      [
        "अ",
        "हं"
      ],
      [
        "ण्",
        "ड"
      ],
      [
        "o",
        "ther"
      ],
      [
        "व",
        "र्"
      ],
      [
        "ित",
        "ुं"
      ],
      [
        "ह",
        "ा"
      ],
      [
        "श्",
        "वर"
      ],
      [
        "i",
        "le"
      ],
      [
        "re",
        "d"
      ],
      [
        "ह",
        "ै"
      ],
      [
        "L",
        "et"
      ],
      [
        "W",
        "h"
      ],
      [
        "t",
        "a"
      ],
      [
        "र",
        "ू"
      ],
      [
        "i",
        "v"
      ],
      [
        "u",
        "d"
      ],
      [
        "व",
        "्य"
      ],
      [
        "c",
        "re"
      ],
      [
        "र",
        "ी"
      ],
      [
        "in",
        "t"
      ],
      [
        "अध",
        "ुना"
      ],
      [
        "l",
        "ow"
      ],
      [
        "n",
        "ame"
      ],
      [
        "sh",
        "all"
      ],
      [
        "ज्ञ",
        "ा"
      ],
      [
        "व",
        "य"
      ],
      [
        "ar",
        "i"
      ],
      [
        "ाम",
        "ः"
      ],
      [
        "is",
        "t"
      ],
      [
        "e",
        "ct"
      ],
      [
        "s",
        "i"
      ],
      [
        "w",
        "or"
      ],
      [
        "यो",
        "ग"
      ],
      [
        "ok",
        "en"
      ],
      [
        "s",
        "er"
      ],
      [
        "स्",
        "ट"
      ],
      [
        "कु",
        "र्व"
      ],
      [
        "ou",
        "ld"
      ],
      [
        "ग",
        "च्छ"
      ],
      [
        "ए",
        "क"
      ],
      [
        "ण",
        "ि"
      ],
      [
        "ङ्",
        "ग"
      ],
      [
        "क्र",
        "ि"
      ],
      [
        "al",
        "so"
      ],
      [
        "ट",
        "ङ्क"
      ],
      [
        "ar",
        "d"
      ],
      [
        "्य",
        "ते"
      ],
      [
        "ाम",
        "ि"
      ],
      [
        "om",
        "e"
      ],
      [
        "st",
        "r"
      ],
      [
        "F",
        "or"
      ],
      [
        "H",
        "e"
      ],
      [
        "पा",
        "ठ"
      ],
      [
        "श",
        "ा"
      ],
      [
        "i",
        "ve"
      ],
      [
        "it",
        "e"
      ],
      [
        "श",
        "्र"
      ],
      [
        "ष्",
        "ठ"
      ],
      [
        "ct",
        "ion"
      ],
      [
        "r",
        "ou"
      ],
      [
        "fo",
        "re"
      ],
      [
        "ष",
        "ां"
      ],
      [
        "an",
        "s"
      ],
      [
        "o",
        "se"
      ],
      [
        "च",
        "े"
      ],
      [
        "en",
        "d"
      ],
      [
        "pl",
        "ay"
      ],
      [
        "ान",
        "ी"
      ],
      [
        "c",
        "k"
      ],
      [
        "se",
        "lect"
      ],
      [
        "व",
        "ान्"
      ],
      [
        "स",
        "म्"
      ],
      [
        "य",
        "ू"
      ],
      [
        "G",
        "od"
      ],
      [
        "wh",
        "en"
      ],
      [
        "com",
        "e"
      ],
      [
        "ty",
        "pe"
      ],
      [
        "नि",
        "र्"
      ],
      [
        "for",
        "m"
      ],
      [
        "दर्",
        "श"
      ],
      [
        "इ",
        "दं"
      ],
      [
        "स",
        "ी"
      ],
      [
        "m",
        "in"
      ],
      [
        "व",
        "ृ"
      ],
      [
        "भ",
        "ू"
      ],
      [
        "य",
        "न्तु"
      ],
      [
        "fi",
        "le"
      ],
      [
        "वर्त",
        "ते"
      ],
      [
        "Y",
        "ou"
      ],
      [
        "त",
        "द"
      ],
      [
        "श",
        "ु"
      ],
      [
        "स",
        "ू"
      ],
      [
        "त",
        "ी"
      ],
      [
        "ac",
        "h"
      ],
      [
        "करो",
        "ति"
      ],
      [
        "t",
        "w"
      ],
      [
        "ic",
        "e"
      ],
      [
        "कि",
        "न्तु"
      ],
      [
        "त",
        "ां"
      ],
      [
        "le",
        "t"
      ],
      [
        "स",
        "ह"
      ],
      [
        "j",
        "ect"
      ],
      [
        "र",
        "ो"
      ],
      [
        "ा",
        "त्"
      ],
      [
        "ित",
        "ं"
      ],
      [
        "ञ्",
        "चि"
      ],
      [
        "य",
        "त्"
      ],
      [
        "C",
        "h"
      ],
      [
        "g",
        "et"
      ],
      [
        "इत्य",
        "े"
      ],
      [
        "p",
        "er"
      ],
      [
        "ou",
        "s"
      ],
      [
        "र्थ",
        "ं"
      ],
      [
        "n",
        "o"
      ],
      [
        "वि",
        "ष"
      ],
      [
        "res",
        "s"
      ],
      [
        "E",
        "n"
      ],
      [
        "sp",
        "ace"
      ],
      [
        "T",
        "o"
      ],
      [
        "ट",
        "र्"
      ],
      [
        "an",
        "y"
      ],
      [
        "pr",
        "o"
      ],
      [
        "ul",
        "t"
      ],
      [
        "C",
        "l"
      ],
      [
        "u",
        "e"
      ],
      [
        "कर्त",
        "ुं"
      ],
      [
        "d",
        "er"
      ],
      [
        "इ",
        "द"
      ],
      [
        "i",
        "g"
      ],
      [
        "p",
        "ut"
      ],
      [
        "s",
        "ay"
      ],
      [
        "um",
        "b"
      ],
      [
        "्र",
        "ा"
      ],
      [
        "त",
        "दा"
      ],
      [
        "शक्",
        "नु"
      ],
      [
        "P",
        "r"
      ],
      [
        "ि",
        "क"
      ],
      [
        "ान",
        "्त"
      ],
      [
        "or",
        "t"
      ],
      [
        "com",
        "m"
      ],
      [
        "ान",
        "ा"
      ],
      [
        "I",
        "t"
      ],
      [
        "उ",
        "परि"
      ],
      [
        "ल",
        "ं"
      ],
      [
        "i",
        "p"
      ],
      [
        "स",
        "र्"
      ],
      [
        "ण",
        "े"
      ],
      [
        "म",
        "ू"
      ],
      [
        "as",
        "t"
      ],
      [
        "ri",
        "ght"
      ],
      [
        "व",
        "द"
      ],
      [
        "प",
        "ित"
      ],
      [
        "sa",
        "id"
      ],
      [
        "k",
        "now"
      ],
      [
        "S",
        "o"
      ],
      [
        "u",
        "re"
      ],
      [
        "प",
        "ृ"
      ],
      [
        "ou",
        "nt"
      ],
      [
        "c",
        "a"
      ],
      [
        "न",
        "ी"
      ],
      [
        "प्रा",
        "प्त"
      ],
      [
        "tw",
        "o"
      ],
      [
        "f",
        "a"
      ],
      [
        "in",
        "to"
      ],
      [
        "f",
        "ol"
      ],
      [
        "p",
        "o"
      ],
      [
        "स",
        "न्ति"
      ],
      [
        "ac",
        "t"
      ],
      [
        "e",
        "m"
      ],
      [
        "न",
        "ाम"
      ],
      [
        "c",
        "o"
      ],
      [
        "भ",
        "ो"
      ],
      [
        "le",
        "ar"
      ],
      [
        "र",
        "ु"
      ],
      [
        "क्",
        "स्"
      ],
      [
        "म",
        "पि"
      ],
      [
        "e",
        "ver"
      ],
      [
        "g",
        "e"
      ],
      [
        "अ",
        "स्य"
      ],
      [
        "ए",
        "व"
      ],
      [
        "र",
        "्य"
      ],
      [
        "परि",
        "वर्त"
      ],
      [
        ",",
        "\""
      ],
      [
        "य",
        "ी"
      ],
      [
        "न्त",
        "े"
      ],
      [
        "ट",
        "े"
      ],
      [
        "त",
        "र्"
      ],
      [
        "re",
        "n"
      ],
      [
        "on",
        "g"
      ],
      [
        "a",
        "w"
      ],
      [
        "क",
        "र्"
      ],
      [
        "क",
        "ल्"
      ],
      [
        "ट",
        "ि"
      ],
      [
        "in",
        "k"
      ],
      [
        "c",
        "ol"
      ],
      [
        "g",
        "re"
      ],
      [
        "ष",
        "ा"
      ],
      [
        "sh",
        "ould"
      ],
      [
        "क",
        "्य"
      ],
      [
        "य",
        "ितुं"
      ],
      [
        "th",
        "ou"
      ],
      [
        "स्था",
        "प"
      ],
      [
        "..",
        ".."
      ],
      [
        "Cl",
        "ick"
      ],
      [
        "d",
        "ay"
      ],
      [
        "e",
        "v"
      ],
      [
        "न",
        "ः"
      ],
      [
        "य",
        "था"
      ],
      [
        "बा",
        "ल"
      ],
      [
        "m",
        "y"
      ],
      [
        "स",
        "न्"
      ],
      [
        "it",
        "y"
      ],
      [
        "ते",
        "षां"
      ],
      [
        "य",
        "ां"
      ],
      [
        "the",
        "n"
      ],
      [
        "re",
        "c"
      ],
      [
        "ने",
        "न"
      ],
      [
        "i",
        "es"
      ],
      [
        "श्",
        "वा"
      ],
      [
        "B",
        "o"
      ],
      [
        "य",
        "दि"
      ],
      [
        "वि",
        "द्य"
      ],
      [
        "भा",
        "ग"
      ],
      [
        "En",
        "ter"
      ],
      [
        "a",
        "th"
      ],
      [
        "e",
        "ar"
      ],
      [
        "लि",
        "ख"
      ],
      [
        "dis",
        "play"
      ],
      [
        "e",
        "p"
      ],
      [
        "w",
        "ord"
      ],
      [
        "ज",
        "्य"
      ],
      [
        "the",
        "se"
      ],
      [
        "an",
        "a"
      ],
      [
        "ान",
        "ं"
      ],
      [
        "se",
        "l"
      ],
      [
        "us",
        "ing"
      ],
      [
        "ne",
        "w"
      ],
      [
        "d",
        "own"
      ],
      [
        "i",
        "ght"
      ],
      [
        "c",
        "al"
      ],
      [
        "u",
        "st"
      ],
      [
        "प",
        "ो"
      ],
      [
        "ा",
        "ः"
      ],
      [
        "य",
        "त"
      ],
      [
        "स",
        "ञ्चि"
      ],
      [
        "्र",
        "े"
      ],
      [
        "कुर्व",
        "न्तु"
      ],
      [
        "a",
        "ve"
      ],
      [
        "n",
        "ess"
      ],
      [
        "अ",
        "नु"
      ],
      [
        "च",
        "ार"
      ],
      [
        "ad",
        "d"
      ],
      [
        "B",
        "ut"
      ],
      [
        "ग",
        "ृ"
      ],
      [
        "o",
        "b"
      ],
      [
        "अ",
        "न"
      ],
      [
        "ग",
        "्"
      ],
      [
        "फ",
        "़"
      ],
      [
        "म",
        "म"
      ],
      [
        "ए",
        "त"
      ],
      [
        "द्",
        "वा"
      ],
      [
        "भि",
        "ः"
      ],
      [
        "ड",
        "ि"
      ],
      [
        "es",
        "us"
      ],
      [
        "प्र",
        "ो"
      ],
      [
        "युष्",
        "मा"
      ],
      [
        "ध",
        "ि"
      ],
      [
        "the",
        "ir"
      ],
      [
        "re",
        "ad"
      ],
      [
        "ar",
        "y"
      ],
      [
        "op",
        "tion"
      ],
      [
        "ण्",
        "ट्"
      ],
      [
        "J",
        "esus"
      ],
      [
        "b",
        "le"
      ],
      [
        "अ",
        "व"
      ],
      [
        "र",
        "च"
      ],
      [
        "ई",
        "श्वर"
      ],
      [
        "म",
        "ह"
      ],
      [
        "is",
        "h"
      ],
      [
        "वि",
        "ष्य"
      ],
      [
        "तर्",
        "हि"
      ],
      [
        "उप",
        "यु"
      ],
      [
        "h",
        "ow"
      ],
      [
        "न",
        "ां"
      ],
      [
        "is",
        "e"
      ],
      [
        "at",
        "er"
      ],
      [
        "द्",
        "व"
      ],
      [
        "स",
        "न"
      ],
      [
        "en",
        "s"
      ],
      [
        "कर",
        "ण"
      ],
      [
        "क्ष",
        "ि"
      ],
      [
        "दृ",
        "श"
      ],
      [
        "कल्",
        "प"
      ],
      [
        "म",
        "ं"
      ],
      [
        "th",
        "od"
      ],
      [
        "ow",
        "s"
      ],
      [
        "a",
        "k"
      ],
      [
        "m",
        "en"
      ],
      [
        "v",
        "ari"
      ],
      [
        "M",
        "o"
      ],
      [
        "b",
        "ack"
      ],
      [
        "ु",
        "म्"
      ],
      [
        "wor",
        "k"
      ],
      [
        "ज",
        "ी"
      ],
      [
        "at",
        "ed"
      ],
      [
        "f",
        "ul"
      ],
      [
        "p",
        "t"
      ],
      [
        "भ",
        "विष्य"
      ],
      [
        "ह",
        "्"
      ],
      [
        "यो",
        "ज"
      ],
      [
        "ान",
        "े"
      ],
      [
        "sp",
        "oken"
      ],
      [
        "-",
        "-"
      ],
      [
        "द",
        "ु"
      ],
      [
        "स",
        "ार"
      ],
      [
        "ha",
        "d"
      ],
      [
        "मे",
        "ं"
      ],
      [
        "c",
        "c"
      ],
      [
        "ग",
        "ा"
      ],
      [
        "म",
        "स्ति"
      ],
      [
        "ch",
        "ang"
      ],
      [
        "fi",
        "r"
      ],
      [
        "Th",
        "en"
      ],
      [
        "I",
        "f"
      ],
      [
        "ab",
        "out"
      ],
      [
        "सर्व",
        "्व"
      ],
      [
        "an",
        "ce"
      ],
      [
        "दृ",
        "ष्ट"
      ],
      [
        "लो",
        "क"
      ],
      [
        "ब",
        "ह"
      ],
      [
        "we",
        "re"
      ],
      [
        "अस्मा",
        "कं"
      ],
      [
        "av",
        "a"
      ],
      [
        "thing",
        "s"
      ],
      [
        "O",
        "ne"
      ],
      [
        "S",
        "p"
      ],
      [
        "d",
        "es"
      ],
      [
        "n",
        "umb"
      ],
      [
        "प",
        "श्च"
      ],
      [
        "as",
        "h"
      ],
      [
        "यि",
        "त्वा"
      ],
      [
        "यू",
        "यं"
      ],
      [
        "s",
        "pe"
      ],
      [
        "p",
        "art"
      ],
      [
        "en",
        "ce"
      ],
      [
        "comm",
        "and"
      ],
      [
        "L",
        "ord"
      ],
      [
        "ण",
        "ां"
      ],
      [
        "कि",
        "ं"
      ],
      [
        "पू",
        "र्व"
      ],
      [
        "1",
        "0"
      ],
      [
        "b",
        "re"
      ],
      [
        "d",
        "r"
      ],
      [
        "e",
        "w"
      ],
      [
        "l",
        "l"
      ],
      [
        "t",
        "im"
      ],
      [
        "उ",
        "द्"
      ],
      [
        "अ",
        "थ"
      ],
      [
        "्य",
        "ु"
      ],
      [
        "me",
        "thod"
      ],
      [
        "स्म",
        "ै"
      ],
      [
        "g",
        "r"
      ],
      [
        "m",
        "ay"
      ],
      [
        "on",
        "t"
      ],
      [
        "न्त",
        "रं"
      ],
      [
        "दृ",
        "श्य"
      ],
      [
        "f",
        "ter"
      ],
      [
        "ए",
        "कं"
      ],
      [
        "औ",
        "र"
      ],
      [
        "to",
        "p"
      ],
      [
        "il",
        "d"
      ],
      [
        "b",
        "od"
      ],
      [
        "म",
        "ित"
      ],
      [
        "स",
        "ो"
      ],
      [
        "भ्य",
        "ः"
      ],
      [
        "ए",
        "तत्"
      ],
      [
        "फ",
        "ल"
      ],
      [
        "or",
        "g"
      ],
      [
        "या",
        "ः"
      ],
      [
        "mo",
        "re"
      ],
      [
        "l",
        "ine"
      ],
      [
        "े",
        "ं"
      ],
      [
        "el",
        "d"
      ],
      [
        "i",
        "z"
      ],
      [
        "p",
        "age"
      ],
      [
        "p",
        "ort"
      ],
      [
        "w",
        "r"
      ],
      [
        "द",
        "ी"
      ],
      [
        "स्य",
        "ा"
      ],
      [
        "wh",
        "at"
      ],
      [
        "मे",
        "व"
      ],
      [
        "con",
        "t"
      ],
      [
        "यु",
        "क्त"
      ],
      [
        "cl",
        "ass"
      ],
      [
        "चित",
        "्र"
      ],
      [
        "R",
        "e"
      ],
      [
        "l",
        "ay"
      ],
      [
        "र्",
        "ग"
      ],
      [
        "ou",
        "nd"
      ],
      [
        "प्र",
        "े"
      ],
      [
        "ag",
        "ain"
      ],
      [
        "r",
        "am"
      ],
      [
        "fir",
        "st"
      ],
      [
        "v",
        "al"
      ],
      [
        "ent",
        "s"
      ],
      [
        "d",
        "ot"
      ],
      [
        "s",
        "ome"
      ],
      [
        "क",
        "म्"
      ],
      [
        "ह",
        "ी"
      ],
      [
        "it",
        "ion"
      ],
      [
        "ol",
        "d"
      ],
      [
        "इद",
        "ानी"
      ],
      [
        "fol",
        "low"
      ],
      [
        "bod",
        "y"
      ],
      [
        "अ",
        "ह"
      ],
      [
        "क्",
        "लि"
      ],
      [
        "li",
        "ke"
      ],
      [
        "i",
        "al"
      ],
      [
        "ध",
        "ार"
      ],
      [
        "ते",
        "न"
      ],
      [
        "पर",
        "ं"
      ],
      [
        "याम",
        "ि"
      ],
      [
        "si",
        "de"
      ],
      [
        "अ",
        "तः"
      ],
      [
        "घ",
        "ा"
      ],
      [
        "ै",
        "व"
      ],
      [
        "ध",
        "ा"
      ],
      [
        "्र",
        "ी"
      ],
      [
        "il",
        "s"
      ],
      [
        "?",
        "\""
      ],
      [
        "h",
        "and"
      ],
      [
        "पा",
        "द"
      ],
      [
        "ca",
        "use"
      ],
      [
        "म",
        "ो"
      ],
      [
        "इत्य",
        "त्र"
      ],
      [
        "T",
        "u"
      ],
      [
        "c",
        "ri"
      ],
      [
        "p",
        "re"
      ],
      [
        "w",
        "ay"
      ],
      [
        "त",
        "ुं"
      ],
      [
        "सम",
        "ी"
      ],
      [
        "b",
        "l"
      ],
      [
        "i",
        "re"
      ],
      [
        "ज",
        "े"
      ],
      [
        "य",
        "ते"
      ],
      [
        "व",
        "्या"
      ],
      [
        "bo",
        "x"
      ],
      [
        "g",
        "iv"
      ],
      [
        "त्",
        "वं"
      ],
      [
        "ac",
        "c"
      ],
      [
        "श्",
        "व"
      ],
      [
        "c",
        "he"
      ],
      [
        "ह",
        "ो"
      ],
      [
        "ित",
        "ा"
      ],
      [
        "ig",
        "n"
      ],
      [
        "विद्य",
        "मान"
      ],
      [
        "A",
        "d"
      ],
      [
        "S",
        "e"
      ],
      [
        "y",
        "st"
      ],
      [
        "क",
        "न्"
      ],
      [
        "re",
        "e"
      ],
      [
        "to",
        "m"
      ],
      [
        "पू",
        "र्"
      ],
      [
        "v",
        "i"
      ],
      [
        "st",
        "ud"
      ],
      [
        "कु",
        "र्"
      ],
      [
        "द्र",
        "ा"
      ],
      [
        "rou",
        "gh"
      ],
      [
        "मू",
        "ल"
      ],
      [
        "lear",
        "n"
      ],
      [
        "च",
        "ा"
      ],
      [
        "श",
        "री"
      ],
      [
        "it",
        "s"
      ],
      [
        "भव",
        "े"
      ],
      [
        "c",
        "ut"
      ],
      [
        "f",
        "t"
      ],
      [
        "h",
        "y"
      ],
      [
        "त",
        "म्"
      ],
      [
        "श",
        "न्"
      ],
      [
        "numb",
        "er"
      ],
      [
        "r",
        "o"
      ],
      [
        "अ",
        "न्य"
      ],
      [
        "se",
        "t"
      ],
      [
        "प्र",
        "थ"
      ],
      [
        "ing",
        "s"
      ],
      [
        "शक्",
        "नो"
      ],
      [
        "cal",
        "led"
      ],
      [
        "A",
        "s"
      ],
      [
        "द",
        "ू"
      ],
      [
        "े",
        "न"
      ],
      [
        "ar",
        "k"
      ],
      [
        "भव",
        "न्तः"
      ],
      [
        "क्त",
        "ि"
      ],
      [
        "s",
        "ame"
      ],
      [
        "ट",
        "ो"
      ],
      [
        "स",
        "ङ्"
      ],
      [
        "re",
        "nt"
      ],
      [
        "ar",
        "r"
      ],
      [
        "pr",
        "int"
      ],
      [
        "con",
        "d"
      ],
      [
        "ए",
        "ता"
      ],
      [
        "भ",
        "ु"
      ],
      [
        "श",
        "ी"
      ],
      [
        "ह",
        "र"
      ],
      [
        "th",
        "rough"
      ],
      [
        "स्",
        "वा"
      ],
      [
        "भव",
        "ान्"
      ],
      [
        "He",
        "re"
      ],
      [
        "ध",
        "्य"
      ],
      [
        "न्",
        "न"
      ],
      [
        "कृ",
        "त्वा"
      ],
      [
        "रि",
        "य"
      ],
      [
        "p",
        "ress"
      ],
      [
        "t",
        "on"
      ],
      [
        "वि",
        "वर"
      ],
      [
        "fi",
        "eld"
      ],
      [
        "man",
        "y"
      ],
      [
        "w",
        "ind"
      ],
      [
        "अ",
        "स्मिन्"
      ],
      [
        "क",
        "स्य"
      ],
      [
        "as",
        "k"
      ],
      [
        "कृ",
        "ते"
      ],
      [
        "यी",
        "शु"
      ],
      [
        "T",
        "y"
      ],
      [
        "च",
        "न"
      ],
      [
        "ै",
        "ः"
      ],
      [
        "ो",
        "परि"
      ],
      [
        "वि",
        "कल्प"
      ],
      [
        "क्ष",
        "े"
      ],
      [
        "मे",
        "ण्ट्"
      ],
      [
        ":",
        "\""
      ],
      [
        "v",
        "es"
      ],
      [
        "उ",
        "त्"
      ],
      [
        "ए",
        "वं"
      ],
      [
        "क",
        "ः"
      ],
      [
        "ब",
        "ल्"
      ],
      [
        "ल",
        "ी"
      ],
      [
        "th",
        "y"
      ],
      [
        "त्र",
        "ा"
      ],
      [
        "वय",
        "म्"
      ],
      [
        "सञ्चि",
        "का"
      ],
      [
        "Sp",
        "oken"
      ],
      [
        "v",
        "ed"
      ],
      [
        "व",
        "स्त"
      ],
      [
        "lo",
        "ad"
      ],
      [
        "पे",
        "ण"
      ],
      [
        "ब",
        "ो"
      ],
      [
        "स",
        "र"
      ],
      [
        "but",
        "ton"
      ],
      [
        "ान",
        "ु"
      ],
      [
        "अथ",
        "वा"
      ],
      [
        "yst",
        "em"
      ],
      [
        "o",
        "ver"
      ],
      [
        "य",
        "दा"
      ],
      [
        "य",
        "तु"
      ],
      [
        "त्",
        "व"
      ],
      [
        "op",
        "en"
      ],
      [
        "चे",
        "त्"
      ],
      [
        "Tu",
        "torial"
      ],
      [
        "m",
        "s"
      ],
      [
        "म",
        "ां"
      ],
      [
        "र",
        "क्ष"
      ],
      [
        "er",
        "t"
      ],
      [
        "यो",
        "ः"
      ],
      [
        "og",
        "ram"
      ],
      [
        "याम",
        "ः"
      ],
      [
        "s",
        "ion"
      ],
      [
        "use",
        "d"
      ],
      [
        "युष्",
        "म"
      ],
      [
        "\"",
        "\""
      ],
      [
        "म",
        "या"
      ],
      [
        "ता",
        "म्"
      ],
      [
        "qu",
        "al"
      ],
      [
        "शक्नु",
        "मः"
      ],
      [
        "क्लि",
        "क्"
      ],
      [
        "d",
        "if"
      ],
      [
        "त",
        "तः"
      ],
      [
        "न",
        "ू"
      ],
      [
        "र",
        "ाम"
      ],
      [
        "्",
        "वे"
      ],
      [
        "it",
        "t"
      ],
      [
        "वि",
        "ध"
      ],
      [
        "The",
        "re"
      ],
      [
        "क्रि",
        "या"
      ],
      [
        "क्षि",
        "ण"
      ],
      [
        "c",
        "lo"
      ],
      [
        "भ",
        "ी"
      ],
      [
        "म",
        "ानि"
      ],
      [
        "स",
        "ाम"
      ],
      [
        "on",
        "ly"
      ],
      [
        "all",
        "y"
      ],
      [
        "com",
        "p"
      ],
      [
        "अ",
        "र्"
      ],
      [
        "व",
        "न्ति"
      ],
      [
        "ent",
        "er"
      ],
      [
        "us",
        "er"
      ],
      [
        "स्मा",
        "त्"
      ],
      [
        "tor",
        "y"
      ],
      [
        "rou",
        "nd"
      ],
      [
        "0",
        "0"
      ],
      [
        "F",
        "r"
      ],
      [
        "e",
        "f"
      ],
      [
        "f",
        "un"
      ],
      [
        "त",
        "्या"
      ],
      [
        "य",
        "ः"
      ],
      [
        "th",
        "an"
      ],
      [
        "ित",
        "वान्"
      ],
      [
        "be",
        "fore"
      ],
      [
        "ha",
        "th"
      ],
      [
        "les",
        "s"
      ],
      [
        "str",
        "u"
      ],
      [
        "Bo",
        "y"
      ],
      [
        "sel",
        "f"
      ],
      [
        "कुर्",
        "मः"
      ],
      [
        "h",
        "er"
      ],
      [
        "श",
        "े"
      ],
      [
        "mo",
        "ve"
      ],
      [
        "Ch",
        "r"
      ],
      [
        "tim",
        "e"
      ],
      [
        "g",
        "ive"
      ],
      [
        "s",
        "he"
      ],
      [
        "म",
        "ृ"
      ],
      [
        "श",
        "ो"
      ],
      [
        "्",
        "वा"
      ],
      [
        "es",
        "e"
      ],
      [
        "se",
        "d"
      ],
      [
        "ment",
        "s"
      ],
      [
        "c",
        "i"
      ],
      [
        "m",
        "ain"
      ],
      [
        "t",
        "ext"
      ],
      [
        "अ",
        "प"
      ],
      [
        "व",
        "न्तः"
      ],
      [
        "le",
        "ft"
      ],
      [
        "भव",
        "न्ति"
      ],
      [
        "कृ",
        "तव"
      ],
      [
        "न्य",
        "ू"
      ],
      [
        "मु",
        "ख"
      ],
      [
        "go",
        "od"
      ],
      [
        "विष",
        "ये"
      ],
      [
        "घा",
        "ट"
      ],
      [
        "S",
        "ave"
      ],
      [
        "c",
        "ame"
      ],
      [
        "p",
        "h"
      ],
      [
        "न",
        "स्य"
      ],
      [
        "भ",
        "्या"
      ],
      [
        "ever",
        "y"
      ],
      [
        "h",
        "ar"
      ],
      [
        "t",
        "est"
      ],
      [
        "इ",
        "न्"
      ],
      [
        "त",
        "ानि"
      ],
      [
        "य",
        "तो"
      ],
      [
        "be",
        "cause"
      ],
      [
        "wh",
        "ile"
      ],
      [
        "im",
        "age"
      ],
      [
        "प्रा",
        "प्"
      ],
      [
        "वर्",
        "ण"
      ],
      [
        "व्य",
        "व"
      ],
      [
        "E",
        "x"
      ],
      [
        "v",
        "ing"
      ],
      [
        "w",
        "here"
      ],
      [
        "w",
        "ant"
      ],
      [
        "आ",
        "व"
      ],
      [
        "ख",
        "्री"
      ],
      [
        "ग",
        "ु"
      ],
      [
        "द",
        "ो"
      ],
      [
        "व",
        "त्"
      ],
      [
        "प्र",
        "का"
      ],
      [
        "be",
        "t"
      ],
      [
        "pr",
        "ogram"
      ],
      [
        "पाठ",
        "े"
      ],
      [
        "lay",
        "er"
      ],
      [
        "नू",
        "त"
      ],
      [
        "ख्री",
        "ष्ट"
      ],
      [
        "k",
        "ing"
      ],
      [
        "प",
        "ं"
      ],
      [
        "क्ष",
        "ा"
      ],
      [
        "पश्य",
        "ामः"
      ],
      [
        "gre",
        "at"
      ],
      [
        "पश्च",
        "ात्"
      ],
      [
        "Chr",
        "ist"
      ],
      [
        "un",
        "der"
      ],
      [
        "चि",
        "न्"
      ],
      [
        "पश्य",
        "न्तु"
      ],
      [
        ":",
        ","
      ],
      [
        "to",
        "ol"
      ],
      [
        "am",
        "a"
      ],
      [
        "tu",
        "r"
      ],
      [
        "ant",
        "s"
      ],
      [
        "a",
        "fter"
      ],
      [
        "c",
        "our"
      ],
      [
        "the",
        "e"
      ],
      [
        "he",
        "l"
      ],
      [
        "ये",
        "त"
      ],
      [
        "ग्र",
        "ा"
      ],
      [
        "bo",
        "th"
      ],
      [
        "dif",
        "fe"
      ],
      [
        "e",
        "qual"
      ],
      [
        "ए",
        "क्"
      ],
      [
        "य",
        "स्य"
      ],
      [
        "in",
        "u"
      ],
      [
        "स्त",
        "े"
      ],
      [
        "भव",
        "तां"
      ],
      [
        "करो",
        "मि"
      ],
      [
        "te",
        "m"
      ],
      [
        "रिय",
        "ल्"
      ],
      [
        "c",
        "ur"
      ],
      [
        "अ",
        "ग्र"
      ],
      [
        "द",
        "त्त"
      ],
      [
        "ot",
        "e"
      ],
      [
        "ke",
        "y"
      ],
      [
        "टङ्क",
        "यन्तु"
      ],
      [
        "chang",
        "e"
      ],
      [
        "wind",
        "ow"
      ],
      [
        "S",
        "t"
      ],
      [
        "a",
        "ke"
      ],
      [
        "c",
        "r"
      ],
      [
        "f",
        "in"
      ],
      [
        "t",
        "ab"
      ],
      [
        "द",
        "क्षिण"
      ],
      [
        "न",
        "म्"
      ],
      [
        "ऽ",
        "पि"
      ],
      [
        "ि",
        "का"
      ],
      [
        "वा",
        "म"
      ],
      [
        "am",
        "ple"
      ],
      [
        "A",
        "r"
      ],
      [
        "c",
        "es"
      ],
      [
        "p",
        "ass"
      ],
      [
        "we",
        "b"
      ],
      [
        "दर्श",
        "यति"
      ],
      [
        "इदानी",
        "ं"
      ],
      [
        "l",
        "ink"
      ],
      [
        "s",
        "ing"
      ],
      [
        "ख",
        "्या"
      ],
      [
        "ग",
        "ी"
      ],
      [
        "ट",
        "्यु"
      ],
      [
        "ic",
        "al"
      ],
      [
        "पा",
        "र्"
      ],
      [
        "मु",
        "द्रा"
      ],
      [
        "su",
        "b"
      ],
      [
        "cre",
        "ate"
      ],
      [
        "d",
        "at"
      ],
      [
        "आ",
        "गच्छ"
      ],
      [
        "ए",
        "ते"
      ],
      [
        "ग",
        "त्वा"
      ],
      [
        "त",
        "या"
      ],
      [
        "in",
        "st"
      ],
      [
        "or",
        "y"
      ],
      [
        "ve",
        "l"
      ],
      [
        "A",
        "cc"
      ],
      [
        "D",
        "e"
      ],
      [
        "a",
        "tor"
      ],
      [
        "b",
        "ar"
      ],
      [
        "प",
        "्य"
      ],
      [
        "न्",
        "स्"
      ],
      [
        "op",
        "le"
      ],
      [
        "स्थ",
        "ि"
      ],
      [
        "कथ",
        "ं"
      ],
      [
        "उद्",
        "घाट"
      ],
      [
        "ट्यु",
        "टो"
      ],
      [
        "L",
        "i"
      ],
      [
        "ध",
        "्व"
      ],
      [
        "क्",
        "ट्"
      ],
      [
        "ic",
        "ation"
      ],
      [
        "be",
        "en"
      ],
      [
        "be",
        "li"
      ],
      [
        "ol",
        "l"
      ],
      [
        "Th",
        "ese"
      ],
      [
        "ङ्ग",
        "्"
      ],
      [
        "ob",
        "ject"
      ],
      [
        "युष्मा",
        "कं"
      ],
      [
        "c",
        "le"
      ],
      [
        "p",
        "ar"
      ],
      [
        "उ",
        "त्त"
      ],
      [
        "यो",
        "क्त"
      ],
      [
        "इती",
        "द"
      ],
      [
        "सम",
        "्य"
      ],
      [
        "दृश्य",
        "ते"
      ],
      [
        "B",
        "e"
      ],
      [
        "a",
        "h"
      ],
      [
        "b",
        "lo"
      ],
      [
        "v",
        "is"
      ],
      [
        "ज",
        "ान"
      ],
      [
        "े",
        "ण"
      ],
      [
        "de",
        "ta"
      ],
      [
        "नि",
        "ष्"
      ],
      [
        "मे",
        "थ"
      ],
      [
        "pr",
        "op"
      ],
      [
        "कि",
        "ञ्च"
      ],
      [
        "ma",
        "ke"
      ],
      [
        "Wh",
        "at"
      ],
      [
        "सू",
        "च"
      ],
      [
        "rec",
        "ord"
      ],
      [
        "जी",
        "व"
      ],
      [
        "l",
        "a"
      ],
      [
        "त",
        "त्र"
      ],
      [
        "प",
        "र्"
      ],
      [
        "य",
        "ित"
      ],
      [
        "व",
        "न्तु"
      ],
      [
        "ter",
        "n"
      ],
      [
        "चि",
        "नो"
      ],
      [
        "ष्ट",
        "ुं"
      ],
      [
        "qu",
        "est"
      ],
      [
        "रू",
        "पेण"
      ],
      [
        "ब",
        "ु"
      ],
      [
        "न्त",
        "्र"
      ],
      [
        "म्",
        "म"
      ],
      [
        "he",
        "ad"
      ],
      [
        "पु",
        "नः"
      ],
      [
        "br",
        "ack"
      ],
      [
        "ट्युटो",
        "रियल्"
      ],
      [
        "brack",
        "et"
      ],
      [
        "U",
        "b"
      ],
      [
        "f",
        "er"
      ],
      [
        "g",
        "in"
      ],
      [
        "s",
        "es"
      ],
      [
        "ar",
        "s"
      ],
      [
        "इत्य",
        "स्मै"
      ],
      [
        "पु",
        "न"
      ],
      [
        "शि",
        "क्ष"
      ],
      [
        "निर्",
        "मा"
      ],
      [
        "display",
        "s"
      ],
      [
        "hel",
        "p"
      ],
      [
        "e",
        "ach"
      ],
      [
        "m",
        "b"
      ],
      [
        "n",
        "ing"
      ],
      [
        "w",
        "ard"
      ],
      [
        "ी",
        "ल्"
      ],
      [
        "at",
        "ic"
      ],
      [
        "ar",
        "ch"
      ],
      [
        "क्",
        "ला"
      ],
      [
        "भव",
        "न्त"
      ],
      [
        "un",
        "tu"
      ],
      [
        "अध",
        "िक"
      ],
      [
        "out",
        "put"
      ],
      [
        "अस्मा",
        "भिः"
      ],
      [
        "चिन्",
        "वन्तु"
      ],
      [
        "Ub",
        "untu"
      ],
      [
        "s",
        "l"
      ],
      [
        "श्",
        "वे"
      ],
      [
        "sh",
        "ip"
      ],
      [
        "पु",
        "त्र"
      ],
      [
        "S",
        "h"
      ],
      [
        "n",
        "am"
      ],
      [
        "p",
        "p"
      ],
      [
        "s",
        "up"
      ],
      [
        "क",
        "ां"
      ],
      [
        "व",
        "ी"
      ],
      [
        "े",
        "षु"
      ],
      [
        "ो",
        "ं"
      ],
      [
        "re",
        "ct"
      ],
      [
        "ष्",
        "ण"
      ],
      [
        "ne",
        "ed"
      ],
      [
        "ple",
        "ase"
      ],
      [
        "che",
        "ck"
      ],
      [
        "diffe",
        "rent"
      ],
      [
        "c",
        "ate"
      ],
      [
        "w",
        "it"
      ],
      [
        "प",
        "ी"
      ],
      [
        "भ",
        "ार"
      ],
      [
        "र",
        "्त"
      ],
      [
        "en",
        "er"
      ],
      [
        "ou",
        "ght"
      ],
      [
        "lo",
        "ok"
      ],
      [
        "br",
        "ary"
      ],
      [
        "ma",
        "il"
      ],
      [
        "say",
        "ing"
      ],
      [
        "fa",
        "ult"
      ],
      [
        "उपयु",
        "ज्य"
      ],
      [
        "inu",
        "x"
      ],
      [
        "c",
        "or"
      ],
      [
        "ड",
        "े"
      ],
      [
        "स",
        "मा"
      ],
      [
        "ह",
        "ू"
      ],
      [
        "ति",
        "ष्ठ"
      ],
      [
        "pe",
        "ople"
      ],
      [
        "शक्नो",
        "ति"
      ],
      [
        "Ty",
        "pe"
      ],
      [
        "N",
        "ext"
      ],
      [
        "h",
        "i"
      ],
      [
        "त",
        "र"
      ],
      [
        "ल",
        "ै"
      ],
      [
        "दे",
        "व"
      ],
      [
        "ap",
        "pe"
      ],
      [
        "श्वा",
        "स"
      ],
      [
        "Acc",
        "ount"
      ],
      [
        "ील्",
        "ड्"
      ],
      [
        "C",
        "tr"
      ],
      [
        "L",
        "inux"
      ],
      [
        "g",
        "l"
      ],
      [
        "क",
        "ू"
      ],
      [
        "ड",
        "ा"
      ],
      [
        "ब",
        "्र"
      ],
      [
        "्य",
        "ां"
      ],
      [
        "ना",
        "स्ति"
      ],
      [
        "नि",
        "मित"
      ],
      [
        "ch",
        "o"
      ],
      [
        "ag",
        "es"
      ],
      [
        "लो",
        "का"
      ],
      [
        "बह",
        "ु"
      ],
      [
        "क्ला",
        "स्"
      ],
      [
        "Ctr",
        "l"
      ],
      [
        "निमित",
        "्त"
      ],
      [
        "e",
        "cut"
      ],
      [
        "w",
        "ater"
      ],
      [
        "श",
        "क"
      ],
      [
        "The",
        "y"
      ],
      [
        ";",
        "\""
      ],
      [
        "b",
        "u"
      ],
      [
        "c",
        "ess"
      ],
      [
        "at",
        "t"
      ],
      [
        "पर",
        "ी"
      ],
      [
        "ना",
        "म्"
      ],
      [
        "के",
        "व"
      ],
      [
        "fo",
        "od"
      ],
      [
        "हा",
        "य"
      ],
      [
        "val",
        "ue"
      ],
      [
        "Ad",
        "d"
      ],
      [
        "deta",
        "ils"
      ],
      [
        "r",
        "ow"
      ],
      [
        "आ",
        "ग"
      ],
      [
        "क",
        "ानि"
      ],
      [
        "ग",
        "ो"
      ],
      [
        "ड",
        "ी"
      ],
      [
        "न",
        "म"
      ],
      [
        "म",
        "नु"
      ],
      [
        "an",
        "other"
      ],
      [
        "on",
        "d"
      ],
      [
        "wh",
        "om"
      ],
      [
        "क्ष",
        "्य"
      ],
      [
        "कि",
        "मपि"
      ],
      [
        "fi",
        "les"
      ],
      [
        "ver",
        "y"
      ],
      [
        "उप",
        "योक्त"
      ],
      [
        "ass",
        "ign"
      ],
      [
        "bo",
        "ok"
      ],
      [
        "मेथ",
        "ड्"
      ],
      [
        "sl",
        "ash"
      ],
      [
        "2",
        "0"
      ],
      [
        "M",
        "an"
      ],
      [
        "ण",
        "म्"
      ],
      [
        "न",
        "ल्"
      ],
      [
        "र",
        "म्"
      ],
      [
        "र",
        "्या"
      ],
      [
        "in",
        "ter"
      ],
      [
        "at",
        "es"
      ],
      [
        "st",
        "and"
      ],
      [
        "co",
        "de"
      ],
      [
        "tur",
        "n"
      ],
      [
        "h",
        "old"
      ],
      [
        "p",
        "at"
      ],
      [
        "s",
        "m"
      ],
      [
        "ख",
        "ा"
      ],
      [
        "व",
        "ान"
      ],
      [
        "er",
        "r"
      ],
      [
        "al",
        "k"
      ],
      [
        "न्",
        "ध"
      ],
      [
        "st",
        "art"
      ],
      [
        "मि",
        "ति"
      ],
      [
        "ex",
        "ecut"
      ],
      [
        "ये",
        "न"
      ],
      [
        "इती",
        "मानि"
      ],
      [
        "tr",
        "y"
      ],
      [
        "fo",
        "x"
      ],
      [
        "ma",
        "de"
      ],
      [
        "स्ट",
        "्र"
      ],
      [
        "G",
        "o"
      ],
      [
        "I",
        "D"
      ],
      [
        "I",
        "nd"
      ],
      [
        "j",
        "o"
      ],
      [
        "l",
        "s"
      ],
      [
        "m",
        "ult"
      ],
      [
        "प",
        "ठ"
      ],
      [
        "प्र",
        "त्य"
      ],
      [
        "च्",
        "च"
      ],
      [
        "ण्",
        "ड्"
      ],
      [
        "द्र",
        "ष्टुं"
      ],
      [
        "अन",
        "न्तरं"
      ],
      [
        "द्वा",
        "रा"
      ],
      [
        "fun",
        "ction"
      ],
      [
        "r",
        "un"
      ],
      [
        "अ",
        "भ्या"
      ],
      [
        "क",
        "ान्"
      ],
      [
        "ज",
        "नं"
      ],
      [
        "व",
        "ित"
      ],
      [
        "he",
        "d"
      ],
      [
        "il",
        "able"
      ],
      [
        "ion",
        "s"
      ],
      [
        "us",
        "h"
      ],
      [
        "कृ",
        "त"
      ],
      [
        "उप",
        "योग"
      ],
      [
        "नुद",
        "तु"
      ],
      [
        "द्ध",
        "ं"
      ],
      [
        "ra",
        "w"
      ],
      [
        "Pr",
        "o"
      ],
      [
        "po",
        "s"
      ],
      [
        "wr",
        "ite"
      ],
      [
        "follow",
        "ing"
      ],
      [
        "जे",
        "क्ट्"
      ],
      [
        "K",
        "o"
      ],
      [
        "M",
        "P"
      ],
      [
        "l",
        "ist"
      ],
      [
        "m",
        "ark"
      ],
      [
        "n",
        "ext"
      ],
      [
        "प",
        "ङ्"
      ],
      [
        "स",
        "ै"
      ],
      [
        "at",
        "ing"
      ],
      [
        "pr",
        "om"
      ],
      [
        "अध",
        "ः"
      ],
      [
        "ले",
        "ख"
      ],
      [
        "कार",
        "्य"
      ],
      [
        "स्ट",
        "े"
      ],
      [
        "....",
        "...."
      ],
      [
        "आव",
        "श्य"
      ],
      [
        "F",
        "ire"
      ],
      [
        "d",
        "om"
      ],
      [
        "i",
        "de"
      ],
      [
        "p",
        "res"
      ],
      [
        "s",
        "im"
      ],
      [
        "t",
        "x"
      ],
      [
        "प",
        "ै"
      ],
      [
        "th",
        "ose"
      ],
      [
        "al",
        "og"
      ],
      [
        "st",
        "ate"
      ],
      [
        "od",
        "u"
      ],
      [
        "pr",
        "act"
      ],
      [
        "ain",
        "t"
      ],
      [
        "रि",
        "ये"
      ],
      [
        "जा",
        "ल"
      ],
      [
        "ta",
        "ke"
      ],
      [
        "ज्ञा",
        "स्य"
      ],
      [
        "सी",
        "त्"
      ],
      [
        "शक्नु",
        "वन्ति"
      ],
      [
        "aw",
        "k"
      ],
      [
        "पूर्",
        "ण"
      ],
      [
        "Ko",
        "ha"
      ],
      [
        "tx",
        "t"
      ],
      [
        "C",
        "T"
      ],
      [
        "F",
        "ile"
      ],
      [
        "i",
        "a"
      ],
      [
        "l",
        "in"
      ],
      [
        "u",
        "ch"
      ],
      [
        "आ",
        "प"
      ],
      [
        "त",
        "द्"
      ],
      [
        "ष",
        "ि"
      ],
      [
        "re",
        "ce"
      ],
      [
        "ou",
        "se"
      ],
      [
        "de",
        "v"
      ],
      [
        "im",
        "port"
      ],
      [
        "pl",
        "ace"
      ],
      [
        "को",
        "र्"
      ],
      [
        "अह",
        "म्"
      ],
      [
        "giv",
        "en"
      ],
      [
        "ग्रा",
        "म्"
      ],
      [
        "(",
        ")"
      ],
      [
        ":",
        "।"
      ],
      [
        "a",
        "u"
      ],
      [
        "a",
        "ther"
      ],
      [
        "g",
        "round"
      ],
      [
        "p",
        "ow"
      ],
      [
        "त",
        "थ"
      ],
      [
        "an",
        "k"
      ],
      [
        "ान",
        "्य"
      ],
      [
        "का",
        "ले"
      ],
      [
        "od",
        "le"
      ],
      [
        "वे",
        "रिये"
      ],
      [
        "र्थ",
        "म्"
      ],
      [
        "Se",
        "lect"
      ],
      [
        "शरी",
        "र"
      ],
      [
        "प्रथ",
        "म"
      ],
      [
        "वेरिये",
        "बल्"
      ],
      [
        "n",
        "er"
      ],
      [
        "s",
        "in"
      ],
      [
        "क",
        "दा"
      ],
      [
        "त",
        "ान्"
      ],
      [
        "द",
        "दा"
      ],
      [
        "स",
        "ः"
      ],
      [
        "पर",
        "े"
      ],
      [
        "with",
        "in"
      ],
      [
        "वृ",
        "त्त"
      ],
      [
        "A",
        "n"
      ],
      [
        "m",
        "ed"
      ],
      [
        "p",
        "tion"
      ],
      [
        "आ",
        "देश"
      ],
      [
        "ग",
        "ण"
      ],
      [
        "त",
        "ृ"
      ],
      [
        "ल",
        "म्"
      ],
      [
        "ह",
        "स्त"
      ],
      [
        "de",
        "fault"
      ],
      [
        "ex",
        "ample"
      ],
      [
        "स्थ",
        "ाने"
      ],
      [
        "सर्व",
        "्वे"
      ],
      [
        "dis",
        "c"
      ],
      [
        "ava",
        "ilable"
      ],
      [
        "d",
        "ou"
      ],
      [
        "d",
        "one"
      ],
      [
        "m",
        "us"
      ],
      [
        "m",
        "ust"
      ],
      [
        "n",
        "a"
      ],
      [
        "s",
        "y"
      ],
      [
        "w",
        "ent"
      ],
      [
        "इ",
        "स"
      ],
      [
        "क",
        "ट"
      ],
      [
        "ब",
        "ि"
      ],
      [
        "भ",
        "्र"
      ],
      [
        "पर",
        "्य"
      ],
      [
        "ch",
        "ar"
      ],
      [
        "सम",
        "ये"
      ],
      [
        "पु",
        "ट"
      ],
      [
        "स्थ",
        "ित"
      ],
      [
        "विष",
        "य"
      ],
      [
        "ev",
        "en"
      ],
      [
        "प्रो",
        "ग्राम्"
      ],
      [
        "men",
        "u"
      ],
      [
        "भवे",
        "त्"
      ],
      [
        "Fire",
        "fox"
      ],
      [
        "p",
        "en"
      ],
      [
        "y",
        "a"
      ],
      [
        "ण",
        "ी"
      ],
      [
        "त",
        "्ये"
      ],
      [
        "ब",
        "हि"
      ],
      [
        "भ",
        "्रा"
      ],
      [
        "य",
        "तः"
      ],
      [
        "्र",
        "ो"
      ],
      [
        "le",
        "g"
      ],
      [
        "का",
        "स"
      ],
      [
        "भव",
        "त्"
      ],
      [
        "इत्य",
        "ा"
      ],
      [
        "ab",
        "les"
      ],
      [
        "com",
        "ple"
      ],
      [
        "if",
        "y"
      ],
      [
        "wor",
        "ld"
      ],
      [
        "vari",
        "able"
      ],
      [
        "भविष्य",
        "ति"
      ],
      [
        "निमित्त",
        "ं"
      ],
      [
        "E",
        "d"
      ],
      [
        "O",
        "S"
      ],
      [
        "S",
        "tu"
      ],
      [
        "c",
        "op"
      ],
      [
        "i",
        "ther"
      ],
      [
        "p",
        "lo"
      ],
      [
        "s",
        "cri"
      ],
      [
        "न",
        "ग"
      ],
      [
        "भ",
        "े"
      ],
      [
        "स्",
        "पो"
      ],
      [
        "न्",
        "द"
      ],
      [
        "कृ",
        "ति"
      ],
      [
        "स्थ",
        "ान"
      ],
      [
        "ष्य",
        "ति"
      ],
      [
        "णा",
        "र्थं"
      ],
      [
        "form",
        "ation"
      ],
      [
        "पृ",
        "ष्ठ"
      ],
      [
        "cour",
        "se"
      ],
      [
        "शक",
        "्यते"
      ],
      [
        "err",
        "or"
      ],
      [
        "S",
        "er"
      ],
      [
        "p",
        "es"
      ],
      [
        "v",
        "o"
      ],
      [
        "ज",
        "ना"
      ],
      [
        "on",
        "s"
      ],
      [
        "al",
        "s"
      ],
      [
        "el",
        "l"
      ],
      [
        "सा",
        "ध"
      ],
      [
        "स्व",
        "ी"
      ],
      [
        "te",
        "ach"
      ],
      [
        "pow",
        "er"
      ],
      [
        "a",
        "thing"
      ],
      [
        "h",
        "ome"
      ],
      [
        "o",
        "st"
      ],
      [
        "ट",
        "ा"
      ],
      [
        "प",
        "ति"
      ],
      [
        "म",
        "त्र"
      ],
      [
        "ु",
        "ः"
      ],
      [
        "त्",
        "म"
      ],
      [
        "प्र",
        "योग"
      ],
      [
        "वा",
        "द"
      ],
      [
        "we",
        "en"
      ],
      [
        "li",
        "fe"
      ],
      [
        "मध",
        "ुना"
      ],
      [
        "av",
        "en"
      ],
      [
        "Wh",
        "en"
      ],
      [
        "पृ",
        "थ"
      ],
      [
        "करण",
        "ीय"
      ],
      [
        "युष्म",
        "ान्"
      ],
      [
        "bet",
        "ween"
      ],
      [
        "Stu",
        "d"
      ],
      [
        "C",
        "re"
      ],
      [
        "N",
        "ame"
      ],
      [
        "m",
        "ind"
      ],
      [
        "y",
        "es"
      ],
      [
        "अ",
        "पर"
      ],
      [
        "ण",
        "ानि"
      ],
      [
        "त",
        "त"
      ],
      [
        "म",
        "हा"
      ],
      [
        "पर",
        "ित"
      ],
      [
        "et",
        "c"
      ],
      [
        "ch",
        "ild"
      ],
      [
        "दा",
        "हर"
      ],
      [
        "li",
        "p"
      ],
      [
        "कु",
        "र्या"
      ],
      [
        "ang",
        "e"
      ],
      [
        "सर्",
        "वा"
      ],
      [
        "col",
        "or"
      ],
      [
        "read",
        "y"
      ],
      [
        "Li",
        "brary"
      ],
      [
        "S",
        "up"
      ],
      [
        "c",
        "tor"
      ],
      [
        "u",
        "es"
      ],
      [
        "v",
        "en"
      ],
      [
        "च",
        "र"
      ],
      [
        "ब",
        "द्ध"
      ],
      [
        "म",
        "ी"
      ],
      [
        "se",
        "ction"
      ],
      [
        "भव",
        "द्"
      ],
      [
        "श्",
        "चि"
      ],
      [
        "pe",
        "ct"
      ],
      [
        "li",
        "ght"
      ],
      [
        "ess",
        "age"
      ],
      [
        "min",
        "is"
      ],
      [
        "min",
        "al"
      ],
      [
        "किञ्च",
        "न"
      ],
      [
        "f",
        "ace"
      ],
      [
        "l",
        "ong"
      ],
      [
        "अ",
        "परं"
      ],
      [
        "घ",
        "ट"
      ],
      [
        "श",
        "ं"
      ],
      [
        "प्र",
        "त्ये"
      ],
      [
        "ित",
        "म्"
      ],
      [
        "कर",
        "ें"
      ],
      [
        "ङ्",
        "क्"
      ],
      [
        "ter",
        "s"
      ],
      [
        "रा",
        "ज"
      ],
      [
        "पश्य",
        "ाम"
      ],
      [
        "di",
        "rec"
      ],
      [
        "टङ्क",
        "यित्वा"
      ],
      [
        "cate",
        "g"
      ],
      [
        "M",
        "E"
      ],
      [
        "b",
        "ot"
      ],
      [
        "f",
        "ound"
      ],
      [
        "h",
        "al"
      ],
      [
        "m",
        "ight"
      ],
      [
        "s",
        "ent"
      ],
      [
        "अ",
        "प्"
      ],
      [
        "त",
        "तो"
      ],
      [
        "न",
        "्या"
      ],
      [
        "ो",
        "ऽ"
      ],
      [
        "स्",
        "वर"
      ],
      [
        "वा",
        "क"
      ],
      [
        "नु",
        "त्वा"
      ],
      [
        "sh",
        "own"
      ],
      [
        "णा",
        "य"
      ],
      [
        "कथ",
        "ां"
      ],
      [
        "तव",
        "न्तः"
      ],
      [
        "there",
        "fore"
      ],
      [
        "Bo",
        "ok"
      ],
      [
        "दृष्ट",
        "ुं"
      ],
      [
        "arr",
        "ay"
      ],
      [
        "D",
        "o"
      ],
      [
        "श",
        "ब्"
      ],
      [
        "त्",
        "थ"
      ],
      [
        "इत्य",
        "नेन"
      ],
      [
        "को",
        "ड्"
      ],
      [
        "el",
        "y"
      ],
      [
        "ir",
        "it"
      ],
      [
        "sa",
        "ith"
      ],
      [
        "सर्व",
        "े"
      ],
      [
        "करो",
        "तु"
      ],
      [
        "pro",
        "ject"
      ],
      [
        "col",
        "our"
      ],
      [
        "पार्",
        "श्वे"
      ],
      [
        "D",
        "es"
      ],
      [
        "F",
        "ather"
      ],
      [
        "c",
        "ul"
      ],
      [
        "g",
        "er"
      ],
      [
        "n",
        "or"
      ],
      [
        "p",
        "ri"
      ],
      [
        "z",
        "e"
      ],
      [
        "ए",
        "ष"
      ],
      [
        "ग",
        "म"
      ],
      [
        "ध",
        "ी"
      ],
      [
        "ब",
        "न्ध"
      ],
      [
        "re",
        "turn"
      ],
      [
        "at",
        "ure"
      ],
      [
        "त्र",
        "ं"
      ],
      [
        "sh",
        "ow"
      ],
      [
        "su",
        "ch"
      ],
      [
        "द्व",
        "ित"
      ],
      [
        "Mo",
        "odle"
      ],
      [
        "S",
        "ystem"
      ],
      [
        "W",
        "el"
      ],
      [
        "c",
        "ent"
      ],
      [
        "c",
        "ha"
      ],
      [
        "s",
        "um"
      ],
      [
        "ग",
        "ि"
      ],
      [
        "छ",
        "ा"
      ],
      [
        "ण",
        "स्य"
      ],
      [
        "ो",
        "ल्"
      ],
      [
        "as",
        "ana"
      ],
      [
        "ना",
        "य"
      ],
      [
        "et",
        "er"
      ],
      [
        "मि",
        "दं"
      ],
      [
        "ag",
        "er"
      ],
      [
        "op",
        "er"
      ],
      [
        "क्त",
        "े"
      ],
      [
        "चि",
        "न्त"
      ],
      [
        "Th",
        "at"
      ],
      [
        "कु",
        "रु"
      ],
      [
        "क्र",
        "ी"
      ],
      [
        "भा",
        "व"
      ],
      [
        "ta",
        "k"
      ],
      [
        "ear",
        "th"
      ],
      [
        "गृ",
        "ह"
      ],
      [
        "ईश्वर",
        "स्य"
      ],
      [
        "A",
        "l"
      ],
      [
        "d",
        "id"
      ],
      [
        "s",
        "to"
      ],
      [
        "s",
        "ystem"
      ],
      [
        "आ",
        "न"
      ],
      [
        "ज",
        "ग"
      ],
      [
        "ड",
        "ौ"
      ],
      [
        "ल",
        "्य"
      ],
      [
        "व",
        "ै"
      ],
      [
        "th",
        "ink"
      ],
      [
        "in",
        "formation"
      ],
      [
        "se",
        "arch"
      ],
      [
        "प्र",
        "ि"
      ],
      [
        "वा",
        "क्य"
      ],
      [
        "ver",
        "sion"
      ],
      [
        "pl",
        "ants"
      ],
      [
        "सं",
        "योज"
      ],
      [
        "up",
        "on"
      ],
      [
        "स्मि",
        "न"
      ],
      [
        "कार",
        "्यं"
      ],
      [
        "di",
        "alog"
      ],
      [
        "है",
        "ं"
      ],
      [
        "select",
        "ed"
      ],
      [
        "विद्यमान",
        "ं"
      ],
      [
        "Fr",
        "ont"
      ],
      [
        "ph",
        "en"
      ],
      [
        "स्थि",
        "ति"
      ],
      [
        "wit",
        "ch"
      ],
      [
        "Pro",
        "ject"
      ],
      [
        "ददा",
        "ति"
      ],
      [
        "Ed",
        "it"
      ],
      [
        "स्पो",
        "कन्"
      ],
      [
        "Wel",
        "come"
      ],
      [
        "C",
        "on"
      ],
      [
        "H",
        "ow"
      ],
      [
        "b",
        "it"
      ],
      [
        "c",
        "ase"
      ],
      [
        "g",
        "n"
      ],
      [
        "p",
        "are"
      ],
      [
        "s",
        "ite"
      ],
      [
        "य",
        "न्ति"
      ],
      [
        "न्त",
        "ं"
      ],
      [
        "se",
        "qu"
      ],
      [
        "he",
        "aven"
      ],
      [
        "il",
        "y"
      ],
      [
        "स्त",
        "र"
      ],
      [
        "com",
        "es"
      ],
      [
        "स्मा",
        "कं"
      ],
      [
        "इत्यस्य",
        "ोपरि"
      ],
      [
        "भि",
        "न्न"
      ],
      [
        "og",
        "a"
      ],
      [
        "वय",
        "मधुना"
      ],
      [
        "ser",
        "ve"
      ],
      [
        "fa",
        "ith"
      ],
      [
        "कर्",
        "ष"
      ],
      [
        "मूल",
        "्यं"
      ],
      [
        "सङ्",
        "ख्या"
      ],
      [
        "Account",
        "ing"
      ],
      [
        "I",
        "CT"
      ],
      [
        "M",
        "y"
      ],
      [
        "d",
        "raw"
      ],
      [
        "l",
        "aw"
      ],
      [
        "w",
        "ould"
      ],
      [
        "अ",
        "नेन"
      ],
      [
        "उ",
        "दाहर"
      ],
      [
        "फ",
        "ै"
      ],
      [
        "फ",
        "ील्ड्"
      ],
      [
        "re",
        "qu"
      ],
      [
        "प्र",
        "श्"
      ],
      [
        "of",
        "f"
      ],
      [
        "वि",
        "श्वा"
      ],
      [
        "pl",
        "ication"
      ],
      [
        "ation",
        "s"
      ],
      [
        "पू",
        "र"
      ],
      [
        "stru",
        "ct"
      ],
      [
        "शे",
        "ष"
      ],
      [
        "प्रका",
        "श"
      ],
      [
        "assign",
        "ment"
      ],
      [
        "ज्ञास्य",
        "ामः"
      ],
      [
        "lin",
        "es"
      ],
      [
        "Stud",
        "ent"
      ],
      [
        "S",
        "a"
      ],
      [
        "e",
        "ous"
      ],
      [
        "p",
        "ing"
      ],
      [
        "t",
        "ri"
      ],
      [
        "च",
        "ी"
      ],
      [
        "ज",
        "ि"
      ],
      [
        "द",
        "श"
      ],
      [
        "म",
        "र्"
      ],
      [
        "ा",
        "द्"
      ],
      [
        "to",
        "ge"
      ],
      [
        "प्र",
        "भु"
      ],
      [
        "ed",
        "it"
      ],
      [
        "ic",
        "es"
      ],
      [
        "lo",
        "ve"
      ],
      [
        "अध",
        "ि"
      ],
      [
        "me",
        "ans"
      ],
      [
        "सा",
        "र्"
      ],
      [
        "ज्ञ",
        "ान"
      ],
      [
        "मान",
        "ं"
      ],
      [
        "कर्त",
        "्त"
      ],
      [
        "ण्ड",
        "ं"
      ],
      [
        "वृ",
        "क्ष"
      ],
      [
        "तद",
        "र्थं"
      ],
      [
        "pro",
        "cess"
      ],
      [
        "spe",
        "ak"
      ],
      [
        "dr",
        "op"
      ],
      [
        "hy",
        "phen"
      ],
      [
        "एक्",
        "सि"
      ],
      [
        "dat",
        "a"
      ],
      [
        "bot",
        "tom"
      ],
      [
        "डौ",
        "न्"
      ],
      [
        "toge",
        "ther"
      ],
      [
        "0",
        "4"
      ],
      [
        "S",
        "T"
      ],
      [
        "e",
        "ve"
      ],
      [
        "o",
        "de"
      ],
      [
        "s",
        "li"
      ],
      [
        "t",
        "ed"
      ],
      [
        "व",
        "त"
      ],
      [
        "वा",
        "ं"
      ],
      [
        "स्त",
        "ु"
      ],
      [
        "कि",
        "न्त"
      ],
      [
        "कि",
        "ञ्चि"
      ],
      [
        "lo",
        "op"
      ],
      [
        "चि",
        "ह्"
      ],
      [
        "our",
        "ce"
      ],
      [
        "me",
        "mb"
      ],
      [
        "ers",
        "on"
      ],
      [
        "रू",
        "प"
      ],
      [
        "cre",
        "ated"
      ],
      [
        "इत्ये",
        "तत्"
      ],
      [
        "कर्",
        "म्म"
      ],
      [
        "क्य",
        "ू"
      ],
      [
        "hand",
        "s"
      ],
      [
        "अग्र",
        "ि"
      ],
      [
        "lip",
        "se"
      ],
      [
        "P",
        "ress"
      ],
      [
        "a",
        "x"
      ],
      [
        "c",
        "ast"
      ],
      [
        "c",
        "ert"
      ],
      [
        "s",
        "ha"
      ],
      [
        "ए",
        "का"
      ],
      [
        "थ",
        "े"
      ],
      [
        "द",
        "्या"
      ],
      [
        "व",
        "न्त"
      ],
      [
        "ऽ",
        "स्मिन्"
      ],
      [
        "यो",
        "जन"
      ],
      [
        "fr",
        "u"
      ],
      [
        "sa",
        "ve"
      ],
      [
        "श्वर",
        "स्य"
      ],
      [
        "ip",
        "les"
      ],
      [
        "णे",
        "न"
      ],
      [
        "भो",
        "जन"
      ],
      [
        "again",
        "st"
      ],
      [
        "चा",
        "ल"
      ],
      [
        "केव",
        "लं"
      ],
      [
        "C",
        "om"
      ],
      [
        "I",
        "s"
      ],
      [
        "J",
        "ava"
      ],
      [
        "O",
        "r"
      ],
      [
        "d",
        "ate"
      ],
      [
        "e",
        "yes"
      ],
      [
        "t",
        "able"
      ],
      [
        "u",
        "res"
      ],
      [
        "अ",
        "न्त"
      ],
      [
        "ट",
        "ी"
      ],
      [
        "स",
        "त्य"
      ],
      [
        "वि",
        "भाग"
      ],
      [
        "be",
        "ing"
      ],
      [
        "ता",
        "ः"
      ],
      [
        "क्त",
        "ं"
      ],
      [
        "ष्य",
        "ते"
      ],
      [
        "से",
        "ट्"
      ],
      [
        "तव",
        "ान्"
      ],
      [
        "देश",
        "ं"
      ],
      [
        "fa",
        "ther"
      ],
      [
        "po",
        "int"
      ],
      [
        "lear",
        "nt"
      ],
      [
        "टे",
        "क्स्"
      ],
      [
        "नूत",
        "नं"
      ],
      [
        "Front",
        "Accounting"
      ],
      [
        "1",
        "2"
      ],
      [
        "j",
        "ust"
      ],
      [
        "m",
        "on"
      ],
      [
        "m",
        "is"
      ],
      [
        "w",
        "ise"
      ],
      [
        "घ",
        "ु"
      ],
      [
        "न",
        "ाना"
      ],
      [
        "य",
        "ह"
      ],
      [
        "य",
        "म्"
      ],
      [
        "ान",
        "ाम"
      ],
      [
        "at",
        "ch"
      ],
      [
        "प्र",
        "क्रिया"
      ],
      [
        "प्र",
        "कट"
      ],
      [
        "he",
        "art"
      ],
      [
        "वि",
        "चार"
      ],
      [
        "ac",
        "tion"
      ],
      [
        "मा",
        "र्ग"
      ],
      [
        "be",
        "gin"
      ],
      [
        "भव",
        "त"
      ],
      [
        "fi",
        "g"
      ],
      [
        "ष्ट",
        "ं"
      ],
      [
        "ul",
        "ar"
      ],
      [
        "पु",
        "ट्"
      ],
      [
        "ain",
        "s"
      ],
      [
        "रे",
        "ण"
      ],
      [
        "ब्",
        "जेक्ट्"
      ],
      [
        "ser",
        "v"
      ],
      [
        "भो",
        "जनं"
      ],
      [
        "sel",
        "ves"
      ],
      [
        "option",
        "s"
      ],
      [
        "एता",
        "दृश"
      ],
      [
        "साम",
        "ान्य"
      ],
      [
        "निष्",
        "कास"
      ],
      [
        "dou",
        "ble"
      ],
      [
        "N",
        "A"
      ],
      [
        "N",
        "ot"
      ],
      [
        "e",
        "le"
      ],
      [
        "h",
        "ouse"
      ],
      [
        "o",
        "ve"
      ],
      [
        "ज",
        "ल"
      ],
      [
        "ण",
        "ो"
      ],
      [
        "त",
        "स्मिन्"
      ],
      [
        "न",
        "ै"
      ],
      [
        "फ",
        "ा"
      ],
      [
        "ब",
        "ी"
      ],
      [
        "म",
        "न"
      ],
      [
        "ह",
        "ु"
      ],
      [
        "ृ",
        "त्य"
      ],
      [
        "le",
        "ase"
      ],
      [
        "we",
        "ll"
      ],
      [
        "et",
        "a"
      ],
      [
        "ok",
        "e"
      ],
      [
        "tr",
        "o"
      ],
      [
        "सा",
        "क्ष"
      ],
      [
        "ष्य",
        "न्ति"
      ],
      [
        "fe",
        "ren"
      ],
      [
        "tutorial",
        "s"
      ],
      [
        "द्ध",
        "ि"
      ],
      [
        "क्रि",
        "यते"
      ],
      [
        "श्र",
        "ु"
      ],
      [
        "--",
        "--"
      ],
      [
        "फल",
        "ितं"
      ],
      [
        "giv",
        "es"
      ],
      [
        "ID",
        "E"
      ],
      [
        "+",
        "+"
      ],
      [
        "e",
        "th"
      ],
      [
        "i",
        "i"
      ],
      [
        "द",
        "ीय"
      ],
      [
        "प",
        "ञ्च"
      ],
      [
        "प",
        "वित"
      ],
      [
        "re",
        "g"
      ],
      [
        "प्र",
        "दर्शयति"
      ],
      [
        "he",
        "ard"
      ],
      [
        "ic",
        "on"
      ],
      [
        "वि",
        "ना"
      ],
      [
        "का",
        "ः"
      ],
      [
        "द्",
        "वे"
      ],
      [
        "नि",
        "य"
      ],
      [
        "ter",
        "minal"
      ],
      [
        "ir",
        "d"
      ],
      [
        "con",
        "tr"
      ],
      [
        "mo",
        "ther"
      ],
      [
        "fe",
        "ct"
      ],
      [
        "ang",
        "le"
      ],
      [
        "टङ्क",
        "यतु"
      ],
      [
        "इत्ये",
        "तेषां"
      ],
      [
        "रच",
        "ना"
      ],
      [
        "vari",
        "ous"
      ],
      [
        "iz",
        "e"
      ],
      [
        "val",
        "ues"
      ],
      [
        "stud",
        "ent"
      ],
      [
        "प्राप्",
        "नु"
      ],
      [
        "Man",
        "ager"
      ],
      [
        "sm",
        "all"
      ],
      [
        "एक्सि",
        "क्यू"
      ],
      [
        "1",
        "1"
      ],
      [
        "A",
        "fter"
      ],
      [
        "S",
        "on"
      ],
      [
        "T",
        "e"
      ],
      [
        "a",
        "f"
      ],
      [
        "c",
        "um"
      ],
      [
        "e",
        "at"
      ],
      [
        "m",
        "essage"
      ],
      [
        "s",
        "al"
      ],
      [
        "ं",
        "ग"
      ],
      [
        "ग",
        "तम्"
      ],
      [
        "त",
        "ौ"
      ],
      [
        "न",
        "ानि"
      ],
      [
        "फ",
        "ि"
      ],
      [
        "म",
        "ै"
      ],
      [
        "र",
        "ख"
      ],
      [
        "ल",
        "भ्य"
      ],
      [
        "स",
        "न्त"
      ],
      [
        "se",
        "cond"
      ],
      [
        "वि",
        "ण्ड"
      ],
      [
        "ab",
        "ove"
      ],
      [
        "with",
        "out"
      ],
      [
        "के",
        "न"
      ],
      [
        "स्व",
        "र्ग"
      ],
      [
        "जा",
        "यते"
      ],
      [
        "भा",
        "ष"
      ],
      [
        "यि",
        "हू"
      ],
      [
        "पूर्व",
        "्व"
      ],
      [
        "प्रे",
        "ष"
      ],
      [
        "cond",
        "ition"
      ],
      [
        "बो",
        "क्स्"
      ],
      [
        "अर्",
        "था"
      ],
      [
        "पङ्",
        "क्त"
      ],
      [
        "vo",
        "ice"
      ],
      [
        "Cre",
        "ate"
      ],
      [
        "कुर्या",
        "त"
      ],
      [
        "direc",
        "tory"
      ],
      [
        "A",
        "p"
      ],
      [
        "N",
        "ew"
      ],
      [
        "e",
        "ye"
      ],
      [
        "t",
        "re"
      ],
      [
        "t",
        "en"
      ],
      [
        "क",
        "था"
      ],
      [
        "ज",
        "ानी"
      ],
      [
        "ध",
        "र्"
      ],
      [
        "ब",
        "े"
      ],
      [
        "ब",
        "्रे"
      ],
      [
        "म",
        "ौ"
      ],
      [
        "र",
        "न्"
      ],
      [
        "र",
        "चित"
      ],
      [
        "स",
        "ां"
      ],
      [
        "re",
        "st"
      ],
      [
        "al",
        "ready"
      ],
      [
        "प्र",
        "भो"
      ],
      [
        "am",
        "ong"
      ],
      [
        "पर",
        "ा"
      ],
      [
        "कर",
        "ि"
      ],
      [
        "त्र",
        "े"
      ],
      [
        "are",
        "d"
      ],
      [
        "प्रा",
        "र्थ"
      ],
      [
        "स्मा",
        "द्"
      ],
      [
        "जा",
        "ता"
      ],
      [
        "Wh",
        "o"
      ],
      [
        "लिख",
        "न्तु"
      ],
      [
        "display",
        "ed"
      ],
      [
        "word",
        "s"
      ],
      [
        "cle",
        "an"
      ],
      [
        "cho",
        "ose"
      ],
      [
        "तथ",
        "ैव"
      ],
      [
        "disc",
        "iples"
      ],
      [
        "\"",
        "."
      ],
      [
        "S",
        "et"
      ],
      [
        "T",
        "r"
      ],
      [
        "h",
        "t"
      ],
      [
        "i",
        "red"
      ],
      [
        "द",
        "ौ"
      ],
      [
        "भ",
        "ग"
      ],
      [
        "म",
        "श"
      ],
      [
        "श",
        "क्ति"
      ],
      [
        "स",
        "ति"
      ],
      [
        "”",
        "."
      ],
      [
        "्र",
        "ं"
      ],
      [
        "वा",
        "रं"
      ],
      [
        "भव",
        "ित"
      ],
      [
        "ha",
        "pp"
      ],
      [
        "op",
        "ens"
      ],
      [
        "ab",
        "ase"
      ],
      [
        "कृ",
        "प"
      ],
      [
        "li",
        "er"
      ],
      [
        "स्थ",
        "ानं"
      ],
      [
        "ord",
        "er"
      ],
      [
        "पे",
        "क्ष"
      ],
      [
        "की",
        "ल"
      ],
      [
        "aw",
        "ay"
      ],
      [
        "अनु",
        "शिक्ष"
      ],
      [
        "org",
        "an"
      ],
      [
        "स्वा",
        "गतम्"
      ],
      [
        "व्यव",
        "स्था"
      ],
      [
        "beli",
        "eve"
      ],
      [
        "यित",
        "ुम्"
      ],
      [
        "prom",
        "pt"
      ],
      [
        "minis",
        "tr"
      ],
      [
        "sequ",
        "ence"
      ],
      [
        "D",
        "is"
      ],
      [
        "S",
        "u"
      ],
      [
        "S",
        "tr"
      ],
      [
        "a",
        "j"
      ],
      [
        "c",
        "y"
      ],
      [
        "c",
        "ed"
      ],
      [
        "e",
        "as"
      ],
      [
        "r",
        "it"
      ],
      [
        "s",
        "on"
      ],
      [
        "s",
        "or"
      ],
      [
        "u",
        "th"
      ],
      [
        "अ",
        "त"
      ],
      [
        "आ",
        "र"
      ],
      [
        "ऐ",
        "कान्"
      ],
      [
        "क",
        "ता"
      ],
      [
        "प",
        "द"
      ],
      [
        "य",
        "द्"
      ],
      [
        "th",
        "ree"
      ],
      [
        "as",
        "ic"
      ],
      [
        "वा",
        "च"
      ],
      [
        "ot",
        "es"
      ],
      [
        "त्र",
        "ि"
      ],
      [
        "यो",
        "ं"
      ],
      [
        "कृ",
        "ष्ण"
      ],
      [
        "ञ्",
        "ज"
      ],
      [
        "लि",
        "ङ्क्"
      ],
      [
        "mo",
        "st"
      ],
      [
        "who",
        "le"
      ],
      [
        "led",
        "ge"
      ],
      [
        "वस्त",
        "ु"
      ],
      [
        "इतीद",
        "म्"
      ],
      [
        "bracket",
        "s"
      ],
      [
        "अभ्या",
        "स"
      ],
      [
        "state",
        "ment"
      ],
      [
        "plo",
        "ye"
      ],
      [
        "child",
        "ren"
      ],
      [
        "l",
        "ast"
      ],
      [
        "w",
        "w"
      ],
      [
        "अ",
        "भि"
      ],
      [
        "इ",
        "व"
      ],
      [
        "च",
        "य"
      ],
      [
        "त",
        "ीय"
      ],
      [
        "प",
        "ौ"
      ],
      [
        "ह",
        "ार"
      ],
      [
        "ू",
        "ल्"
      ],
      [
        "in",
        "side"
      ],
      [
        "it",
        "ies"
      ],
      [
        "के",
        "ट्"
      ],
      [
        "if",
        "t"
      ],
      [
        "him",
        "self"
      ],
      [
        "से",
        "व"
      ],
      [
        "तस्य",
        "ा"
      ],
      [
        "स्म",
        "र"
      ],
      [
        "कुर्व",
        "न्ति"
      ],
      [
        "निर्",
        "दि"
      ],
      [
        "ाना",
        "म्"
      ],
      [
        "लिख",
        "ित"
      ],
      [
        "दो",
        "ष"
      ],
      [
        "20",
        "1"
      ],
      [
        "ploye",
        "e"
      ],
      [
        "5",
        "0"
      ],
      [
        "f",
        "l"
      ],
      [
        "f",
        "il"
      ],
      [
        "f",
        "our"
      ],
      [
        "p",
        "ose"
      ],
      [
        "s",
        "ol"
      ],
      [
        "आ",
        "सीत्"
      ],
      [
        "इ",
        "च्छ"
      ],
      [
        "ओ",
        "ब्जेक्ट्"
      ],
      [
        "त",
        "म"
      ],
      [
        "त",
        "स्मात्"
      ],
      [
        "द",
        "ण्ड"
      ],
      [
        "ध",
        "ः"
      ],
      [
        "व",
        "ो"
      ],
      [
        "ष",
        "्या"
      ],
      [
        "स",
        "प्त"
      ],
      [
        "il",
        "ar"
      ],
      [
        "मा",
        "र्"
      ],
      [
        "पर",
        "स्"
      ],
      [
        "नि",
        "ज"
      ],
      [
        "ता",
        "दृश"
      ],
      [
        "कि",
        "म्"
      ],
      [
        "fi",
        "ed"
      ],
      [
        "li",
        "ve"
      ],
      [
        "ex",
        "pl"
      ],
      [
        "मध",
        "्य"
      ],
      [
        "सम",
        "ु"
      ],
      [
        "res",
        "ult"
      ],
      [
        "sa",
        "w"
      ],
      [
        "do",
        "es"
      ],
      [
        "who",
        "se"
      ],
      [
        "su",
        "re"
      ],
      [
        "एत",
        "ानि"
      ],
      [
        "bre",
        "athing"
      ],
      [
        "ानु",
        "सार"
      ],
      [
        "blo",
        "ck"
      ],
      [
        "चिनो",
        "मि"
      ],
      [
        "ward",
        "s"
      ],
      [
        "pract",
        "ice"
      ],
      [
        "categ",
        "ory"
      ],
      [
        "टेक्स्",
        "ट्"
      ],
      [
        "a",
        "ir"
      ],
      [
        "i",
        "les"
      ],
      [
        "m",
        "ic"
      ],
      [
        "s",
        "k"
      ],
      [
        "आ",
        "सन"
      ],
      [
        "ए",
        "षा"
      ],
      [
        "औ",
        "ट्"
      ],
      [
        "ड",
        "ो"
      ],
      [
        "त",
        "न्"
      ],
      [
        "in",
        "de"
      ],
      [
        "ou",
        "n"
      ],
      [
        "का",
        "र्"
      ],
      [
        "are",
        "a"
      ],
      [
        "br",
        "ing"
      ],
      [
        "सू",
        "र्य"
      ],
      [
        "fol",
        "der"
      ],
      [
        "कू",
        "र्"
      ],
      [
        "mult",
        "i"
      ],
      [
        "वाक",
        "्यं"
      ],
      [
        "प्रकट",
        "यति"
      ],
      [
        "एक्सिक्यू",
        "ट्"
      ],
      [
        "B",
        "y"
      ],
      [
        "G",
        "I"
      ],
      [
        "L",
        "a"
      ],
      [
        "O",
        "N"
      ],
      [
        "P",
        "a"
      ],
      [
        "a",
        "le"
      ],
      [
        "b",
        "es"
      ],
      [
        "c",
        "lipse"
      ],
      [
        "f",
        "low"
      ],
      [
        "p",
        "ath"
      ],
      [
        "क",
        "श्चि"
      ],
      [
        "ग",
        "ण्डं"
      ],
      [
        "भ",
        "क्त"
      ],
      [
        "म",
        "न्य"
      ],
      [
        "स",
        "ङ्ग"
      ],
      [
        "्य",
        "म्"
      ],
      [
        "त्",
        "वे"
      ],
      [
        "he",
        "ar"
      ],
      [
        "ाम",
        "हे"
      ],
      [
        "we",
        "red"
      ],
      [
        "पा",
        "ल"
      ],
      [
        "ad",
        "i"
      ],
      [
        "pl",
        "y"
      ],
      [
        "वर्त",
        "्त"
      ],
      [
        "इत्यस्य",
        "ा"
      ],
      [
        "ग्र",
        "न्"
      ],
      [
        "सि",
        "द्ध"
      ],
      [
        "याम",
        "ा"
      ],
      [
        "क्रि",
        "य"
      ],
      [
        "ans",
        "wered"
      ],
      [
        "vari",
        "ables"
      ],
      [
        "wr",
        "itt"
      ],
      [
        "मुद्रा",
        "प"
      ],
      [
        "mark",
        "s"
      ],
      [
        "import",
        "ant"
      ],
      [
        "writt",
        "en"
      ],
      [
        "A",
        "MP"
      ],
      [
        "B",
        "re"
      ],
      [
        "C",
        "he"
      ],
      [
        "K",
        "r"
      ],
      [
        "O",
        "n"
      ],
      [
        "X",
        "AMP"
      ],
      [
        "m",
        "od"
      ],
      [
        "m",
        "ount"
      ],
      [
        "r",
        "oll"
      ],
      [
        "अ",
        "न्"
      ],
      [
        "त",
        "ै"
      ],
      [
        "ध",
        "ान"
      ],
      [
        "म",
        "त्"
      ],
      [
        "ल",
        "ू"
      ],
      [
        "व",
        "्यं"
      ],
      [
        "ी",
        "ति"
      ],
      [
        "th",
        "ren"
      ],
      [
        "an",
        "im"
      ],
      [
        "le",
        "te"
      ],
      [
        "प्र",
        "वि"
      ],
      [
        "प्र",
        "ार"
      ],
      [
        "st",
        "atic"
      ],
      [
[...]
